{"<s>":0,"<pad>":1,"</s>":2,"<unk>":3,"<mask>":4,"!":5,"\"":6,"#":7,"$":8,"%":9,"&":10,"'":11,"(":12,")":13,"*":14,"+":15,",":16,"-":17,".":18,"/":19,"0":20,"1":21,"2":22,"3":23,"4":24,"5":25,"6":26,"7":27,"8":28,"9":29,":":30,";":31,"<":32,"=":33,">":34,"?":35,"@":36,"A":37,"B":38,"C":39,"D":40,"E":41,"F":42,"G":43,"H":44,"I":45,"J":46,"K":47,"L":48,"M":49,"N":50,"O":51,"P":52,"Q":53,"R":54,"S":55,"T":56,"U":57,"V":58,"W":59,"X":60,"Y":61,"Z":62,"[":63,"\\":64,"]":65,"^":66,"_":67,"`":68,"a":69,"b":70,"c":71,"d":72,"e":73,"f":74,"g":75,"h":76,"i":77,"j":78,"k":79,"l":80,"m":81,"n":82,"o":83,"p":84,"q":85,"r":86,"s":87,"t":88,"u":89,"v":90,"w":91,"x":92,"y":93,"z":94,"{":95,"|":96,"}":97,"~":98,"¡":99,"¢":100,"£":101,"¤":102,"¥":103,"¦":104,"§":105,"¨":106,"©":107,"ª":108,"«":109,"¬":110,"®":111,"¯":112,"°":113,"±":114,"²":115,"³":116,"´":117,"µ":118,"¶":119,"·":120,"¸":121,"¹":122,"º":123,"»":124,"¼":125,"½":126,"¾":127,"¿":128,"À":129,"Á":130,"Â":131,"Ã":132,"Ä":133,"Å":134,"Æ":135,"Ç":136,"È":137,"É":138,"Ê":139,"Ë":140,"Ì":141,"Í":142,"Î":143,"Ï":144,"Ð":145,"Ñ":146,"Ò":147,"Ó":148,"Ô":149,"Õ":150,"Ö":151,"×":152,"Ø":153,"Ù":154,"Ú":155,"Û":156,"Ü":157,"Ý":158,"Þ":159,"ß":160,"à":161,"á":162,"â":163,"ã":164,"ä":165,"å":166,"æ":167,"ç":168,"è":169,"é":170,"ê":171,"ë":172,"ì":173,"í":174,"î":175,"ï":176,"ð":177,"ñ":178,"ò":179,"ó":180,"ô":181,"õ":182,"ö":183,"÷":184,"ø":185,"ù":186,"ú":187,"û":188,"ü":189,"ý":190,"þ":191,"ÿ":192,"Ā":193,"ā":194,"Ă":195,"ă":196,"Ą":197,"ą":198,"Ć":199,"ć":200,"Ĉ":201,"ĉ":202,"Ċ":203,"ċ":204,"Č":205,"č":206,"Ď":207,"ď":208,"Đ":209,"đ":210,"Ē":211,"ē":212,"Ĕ":213,"ĕ":214,"Ė":215,"ė":216,"Ę":217,"ę":218,"Ě":219,"ě":220,"Ĝ":221,"ĝ":222,"Ğ":223,"ğ":224,"Ġ":225,"ġ":226,"Ģ":227,"ģ":228,"Ĥ":229,"ĥ":230,"Ħ":231,"ħ":232,"Ĩ":233,"ĩ":234,"Ī":235,"ī":236,"Ĭ":237,"ĭ":238,"Į":239,"į":240,"İ":241,"ı":242,"Ĳ":243,"ĳ":244,"Ĵ":245,"ĵ":246,"Ķ":247,"ķ":248,"ĸ":249,"Ĺ":250,"ĺ":251,"Ļ":252,"ļ":253,"Ľ":254,"ľ":255,"Ŀ":256,"ŀ":257,"Ł":258,"ł":259,"Ń":260,"čĊ":261,"en":262,"ta":263,"es":264,"Ġp":265,"Ã¼":266,"ch":267,"Ġm":268,"Ġl":269,"an":270,"el":271,"ey":272,"er":273,"Ġk":274,"Ã±":275,"Ġd":276,"Ġa":277,"ng":278,"Ġta":279,"Ġs":280,"ay":281,"Ġt":282,"Ġes":283,"os":284,"em":285,"Ġn":286,"ÃŃ":287,"Ġc":288,"ra":289,"on":290,"chi":291,"Ġf":292,"Ġh":293,"ue":294,"tu":295,"al":296,"as":297,"Ġpu":298,"mu":299,"..":300,"Ġr":301,"tr":302,"in":303,"me":304,"Ġen":305,"que":306,"or":307,"Ġv":308,"Ã¼l":309,"mi":310,"ar":311,"Ġno":312,"te":313,"un":314,"do":315,"ke":316,"da":317,"che":318,"Ã¼n":319,"uy":320,"Ġla":321,"ti":322,"Ġpi":323,"iÃ±":324,"Ġpues":325,"Ġde":326,"fey":327,"aw":328,"Ã±i":329,"Ã©":330,"Ġel":331,"Ġque":332,"bi":333,"am":334,"Ġse":335,"om":336,"Â¿":337,"Ġdi":338,"ki":339,"di":340,"Ġka":341,"Ġfey":342,"to":343,"Ġma":344,"ab":345,"pu":346,"Ġw":347,"ka":348,"Ã¡":349,"nge":350,"re":351,"ll":352,"fi":353,"Ġy":354,"im":355,"Ġme":356,"eme":357,"Ġlo":358,"Ġeso":359,"ci":360,"Ah":361,"Ã©n":362,"pi":363,"elu":364,"mbi":365,"Ġcon":366,"Ġku":367,"Ã³":368,"awen":369,"ol":370,"emedi":371,"tran":372,"Ġti":373,"Ġle":374,"fuy":375,"le":376,"Ġch":377,"sÃŃ":378,"Ġremedi":379,"mbiÃ©n":380,"erm":381,"de":382,"....":383,"Ġpe":384,"qu":385,"ÃŃa":386,"elay":387,"Ġtati":388,"tra":389,"pa":390,"Ġan":391,"ĠkÃ¼":392,"la":393,"Ġg":394,"Ġb":395,"Ġesta":396,"ce":397,"ĠmÃ¼l":398,"jo":399,"ente":400,"Ġenf":401,"ri":402,"Ġkutran":403,"Ġremedio":404,"Ġng":405,"ĠtÃ¼":406,"ero":407,"dad":408,"omo":409,"eng":410,"no":411,"Ġpa":412,"ume":413,"Ġha":414,"Ġchi":415,"Fey":416,"Ġmi":417,"Ġun":418,"Â¡":419,"Ġche":420,"Ġmu":421,"um":422,"ando":423,"Ġkim":424,"uen":425,"se":426,"ĠčĊ":427,"Ġin":428,"ung":429,"ĠtambiÃ©n":430,"ew":431,"erman":432,"Ġni":433,"No":434,"oy":435,"oc":436,"Ġmapu":437,"ora":438,"ĠÃ±i":439,"Ã¡s":440,"por":441,"iÃ±e":442,"ĠasÃŃ":443,"Ġll":444,"SÃŃ":445,"erme":446,"Ġhay":447,"ten":448,"Ġherman":449,"ku":450,"ma":451,"Ġsi":452,"fa":453,"Ġlos":454,"ces":455,"ermedad":456,"ngi":457,"ĠtaÃ±i":458,"era":459,"Ġcu":460,"Ġvi":461,"si":462,"Ġal":463,"gu":464,"Ġo":465,"Ġre":466,"Ġmachi":467,"ene":468,"Ġenfermedad":469,"Ġpor":470,"ca":471,"ba":472,"Ġsu":473,"lu":474,"ken":475,"tuy":476,"lo":477,"ers":478,"du":479,"Ġi":480,"Es":481,"Ġrume":482,"key":483,"vi":484,"li":485,"ni":486,"cho":487,"kÃ¼":488,"ent":489,"Ġhi":490,"Ġtu":491,"qui":492,"ngen":493,"ang":494,"Ġto":495,"Ġmo":496,"ĠmÃ¼":497,"May":498,"Ġmal":499,"Ã¼le":500,"Ġese":501,"Ġmay":502,"Ġhermano":503,"cen":504,"Ġgente":505,"cu":506,"us":507,"?.":508,"ĠpeÃ±i":509,"tun":510,"pero":511,"lay":512,"ungu":513,"Ġfem":514,"ngechi":515,"tro":516,"Ġsab":517,"Ġpas":518,"Ġbuen":519,"ĠmÃ¡s":520,"kefuy":521,"tÃ¼":522,"tal":523,"feyta":524,"Ġah":525,"ĠpÃ¼":526,"--":527,"ela":528,"onces":529,"asÃŃ":530,"Ġhab":531,"Ġ*":532,"Ġtra":533,"ĠkiÃ±e":534,"Ġchem":535,"ro":536,"........":537,"ko":538,"mo":539,"ĠtÃ¼fa":540,"Ġpichi":541,"pe":542,"Ġtri":543,"co":544,"Ġcomo":545,"Ã³n":546,"ech":547,"bien":548,"ill":549,"...":550,"za":551,"ngÃ¼n":552,"Ġdijo":553,"AsÃŃ":554,"Ġdungu":555,"vey":556,"ĠkÃ¼me":557,"go":558,"Ġya":559,"erson":560,"ĠĠ":561,"Ã¼m":562,"Ġlas":563,"eron":564,"Ġten":565,"dre":566,"Ġve":567,"Ġperson":568,"tambiÃ©n":569,"Ġtiene":570,"uyfi":571,"Ġyo":572,"ĠmÃ¼ten":573,"Ġpara":574,"tes":575,"Ġmapuche":576,"Ġe":577,"Ġsal":578,"Ġbien":579,"eso":580,"Ġlle":581,"Ġwi":582,"Ġest":583,"Ġdicen":584,"gÃ¼n":585,"emay":586,"con":587,"ga":588,"los":589,"fiÃ±":590,"Ġhu":591,"Ġwe":592,"ele":593,"ran":594,"kelay":595,"we":596,"pay":597,"ento":598,"Ġvey":599,"ĠmÃ¼le":600,"Ġmucho":601,"Ch":602,"Ġesa":603,"Ġinche":604,"tros":605,"eli":606,"ah":607,"cha":608,"Ġcos":609,"Ġkay":610,"Ġnos":611,"ÃŃan":612,"gun":613,"ĠmÃ¼li":614,"eymi":615,"Ġfu":616,"Ġfeyta":617,"oco":618,"va":619,"emu":620,"Ġdij":621,"ia":622,"entu":623,"Ġcono":624,"Ġ.":625,"uechi":626,"dos":627,"Ġra":628,"Ġuna":629,"is":630,"Ġmuy":631,"bre":632,"Ã±o":633,"feymu":634,"Ã¼tra":635,"Ġsa":636,"fem":637,"Ġco":638,"ama":639,"Ġesto":640,"pan":641,"Ġna":642,"ese":643,"Ġamu":644,"Ġbueno":645,"Ġva":646,"ĠtÃ¼fi":647,"po":648,"Ġkom":649,"ina":650,"Ġllemay":651,"Ġahora":652,"mÃ¼n":653,"para":654,"En":655,"aba":656,"ja":657,"fu":658,"entonces":659,"pital":660,"ami":661,"enu":662,"erra":663,"Ġsol":664,"Ġdice":665,"Ġpingi":666,"lan":667,"ve":668,"ted":669,"amos":670,"Ġru":671,"ino":672,"ĠestÃ¡":673,"Ã¼r":674,"ngka":675,"cer":676,"Ġtr":677,"Ġenferm":678,"entr":679,"Ġser":680,"eÃ±":681,"pal":682,"como":683,"Ġki":684,"Ġcuando":685,"Ġpar":686,"Ġtierra":687,"kÃ¼l":688,"welu":689,"lar":690,"ngey":691,"ngeki":692,"echen":693,"quÃŃ":694,"wi":695,"car":696,"'.":697,"Ġhuin":698,"vuy":699,"Eso":700,"otros":701,"ospital":702,"Ġtami":703,"gua":704,"chu":705,"Ġpue":706,"onde":707,"Ġdel":708,"Ġkuyfi":709,"au":710,"Ġhace":711,"Ġtodo":712,"pÃ¼le":713,"Fem":714,"Ġpadre":715,"Ġko":716,"eley":717,"meu":718,"Por":719,"Ã©s":720,"Si":721,"Ġsabe":722,"cuando":723,"kay":724,"Ġpoco":725,"usted":726,"Ġpen":727,"chiÃ±":728,"Ka":729,"fun":730,"Ġdoy":731,"Ġeste":732,"elan":733,"afuy":734,"Ġnga":735,"ali":736,"Ġte":737,"ĠÃ±":738,"yo":739,"alu":740,"Se":741,"Ġall":742,"Ġkon":743,"ĠiÃ±":744,"keche":745,"elo":746,"tar":747,"ya":748,"kim":749,"kiÃ±e":750,"illa":751,"----":752,"vers":753,"fÃ¼":754,"Ġwingka":755,"Ġera":756,"Ġper":757,"Ġchum":758,"be":759,"kidu":760,"ues":761,"ĠniÃ±":762,"Ġpersona":763,"Ġda":764,"Ã¼tram":765,"Ġhospital":766,"tos":767,"endo":768,"aron":769,"Ġso":770,"Ġman":771,"emos":772,"ĠkÃ¼m":773,"ĠhabÃŃa":774,"Ġcas":775,"Ġnie":776,"ĠmÃ¼ley":777,"esta":778,"NgÃ¼n":779,"engÃ¼n":780,"fimi":781,"Ã¼f":782,"Ġllama":783,"Ġfor":784,"mew":785,"mbien":786,"jer":787,"tonces":788,"Ġcom":789,"lla":790,"Ã¼y":791,"Ġconvers":792,"Ãº":793,"pues":794,"awi":795,"NgÃ¼nechen":796,"Ġver":797,"Ġac":798,"Ġam":799,"Ġhuinca":800,"kela":801,"Ġcre":802,"Ã±a":803,"Ã¼ll":804,"cia":805,"Ġfeymu":806,"Ġpersonas":807,"laro":808,"tan":809,"Ã³mo":810,"Ġgran":811,"Ġmas":812,"Ġremedios":813,"Ġro":814,"Ġchaw":815,"Ġfeychi":816,"Di":817,"Ġantes":818,"engo":819,"ĠsÃŃ":820,"Ġqu":821,"chem":822,"mos":823,"ĠaquÃŃ":824,"Ġfuer":825,"jor":826,"Ġdu":827,"Ġdes":828,"ĠkimÃ¼n":829,"Ġellos":830,"quier":831,"vo":832,"/-":833,"Ġmujer":834,"Ġmongen":835,"zo":836,"'t":837,"Ġj":838,"Ġusted":839,"ari":840,"xis":841,"enen":842,"chum":843,"ciÃ³n":844,"porque":845,"-/":846,"Ġpero":847,"nos":848,"Ã±os":849,"kÃ¼n":850,"Ġpo":851,"Ġagua":852,"hay":853,"pÃ¼":854,"amu":855,"taÃ±i":856,"Ġhacer":857,"gar":858,"Ġconoci":859,"Ġcab":860,"kun":861,"Ġwelu":862,"Ġdije":863,"ĠahÃŃ":864,"Ġeymi":865,"kom":866,"Ġtom":867,"Ġbus":868,"fe":869,"Ġhar":870,"Ġconoc":871,"ahora":872,"yu":873,"enge":874,"ĠtÃ¼fey":875,"Ya":876,"esa":877,"mÃ¼l":878,"Ġvida":879,"Ġnew":880,"Ġdomo":881,"ĠengÃ¼n":882,"pantu":883,"Ġnosotros":884,"Ġnge":885,"Ġar":886,"jos":887,"Ġcomi":888,"kan":889,"!.":890,"Feyti":891,"Pero":892,"Ã¼na":893,"Ġcosas":894,"tÃ¼fa":895,"Ġmejor":896,"aymi":897,"Ġkidu":898,"kelu":899,"kal":900,"Ġweda":901,"Ġca":902,"etu":903,"inche":904,"fin":905,"Ġad":906,"ĠpÃ¼Ã±":907,"rume":908,"ell":909,"Ġpital":910,"Ġdonde":911,"Ġcosa":912,"Ġpasa":913,"Ġlam":914,"ĠfÃ¼":915,"Ġveces":916,"Ng":917,"Aa":918,"Ġpens":919,"Ġhermana":920,"Ġas":921,"Ġentonces":922,"cian":923,"ir":924,"uke":925,"Ma":926,"Ġfemngechi":927,"jora":928,"intu":929,"Ġtripantu":930,"Ese":931,"das":932,"per":933,"kon":934,"miento":935,"Ġestaba":936,"entru":937,"aban":938,"Ġhe":939,"des":940,"Ġmejora":941,"pre":942,"biÃ©n":943,"Ġsolo":944,"na":945,"Ġcol":946,"Ġsan":947,"Kim":948,"ĠNgÃ¼nechen":949,"Ġdec":950,"may":951,"ĠtaiÃ±":952,"wÃ¼n":953,"asi":954,"ban":955,"eyu":956,"ru":957,"all":958,"Ġtripa":959,"Ġlamngen":960,"van":961,"ven":962,"Pa":963,"welay":964,"res":965,"Ġtengo":966,"Ġalgun":967,"Ġmon":968,"Ġngilla":969,"ĠDi":970,"Tam":971,"Ġvoy":972,"Ġdej":973,"Ġmong":974,"fel":975,"par":976,"Ġnues":977,"Ġhom":978,"Ġtambien":979,"kiduam":980,"Ġmis":981,"Ġenc":982,"El":983,"kutran":984,"Ġnom":985,"Ġasi":986,"olu":987,"alquier":988,"Ġmedi":989,"Ã¼la":990,"................":991,"tor":992,"Ġentra":993,"rÃŃa":994,"tri":995,"Ġfeypi":996,"Ġli":997,"una":998,"ĠpÃ¼Ã±eÃ±":999,"Ġotra":1000,"ahÃŃ":1001,"fen":1002,"Ġexis":1003,"Ġ-/":1004,"ĠaÃ±os":1005,"ngelu":1006,"Ġfue":1007,"Ġotro":1008,"eno":1009,"enta":1010,"veyta":1011,"Ġfuerza":1012,"ĉĉ":1013,"tre":1014,"Ġforma":1015,"trÃ¼":1016,"Ġpew":1017,"Ġcam":1018,"Ġreke":1019,"kevuy":1020,"amente":1021,"Ġor":1022,"Ġfeyti":1023,"gati":1024,"kÃ¼me":1025,"Ġhijo":1026,"Ġwentru":1027,"Ġpre":1028,"Cu":1029,"feychi":1030,"Ã¡n":1031,"ueÃ±o":1032,"Ġestar":1033,"mang":1034,"Ġpuede":1035,"su":1036,"Ġtraba":1037,"Ġcor":1038,"eza":1039,"kul":1040,"Ġqui":1041,"tuki":1042,"ĠngÃ¼n":1043,"Feymu":1044,"yiÃ±":1045,"ĠantÃ¼":1046,"Ġvez":1047,"este":1048,"Ġtienen":1049,"Ġmonge":1050,"Ġsale":1051,"empre":1052,"Ġbe":1053,"Ġestoy":1054,"Ġrakiduam":1055,"Ġtodos":1056,"fill":1057,"Ġdijeron":1058,"Feley":1059,"Ġconversa":1060,"TambiÃ©n":1061,"kuyfi":1062,"asta":1063,"Lo":1064,"ĠniÃ±os":1065,"Ġpetu":1066,"Ġhizo":1067,"ĠÂ¿":1068,"Ġrogati":1069,"Ġpal":1070,"Ġpingey":1071,"Ġencuen":1072,"Ġelu":1073,"Feyta":1074,"ĠiÃ±che":1075,"anta":1076,"nga":1077,"Ġnada":1078,"Ġmapuch":1079,"Ġcabeza":1080,"kaw":1081,"feyti":1082,"kelan":1083,"der":1084,"bra":1085,"ngelay":1086,"Ġanda":1087,"ĠquÃ©":1088,"sa":1089,"Ġanta":1090,"Ġtener":1091,"eu":1092,"can":1093,"ren":1094,"gra":1095,"ngko":1096,"lle":1097,"nie":1098,"ale":1099,"Ġbuscar":1100,"Pi":1101,"pue":1102,"entes":1103,"Ġhombre":1104,"gel":1105,"ĠnÃ¼tram":1106,"Ġson":1107,"femngechi":1108,"Ġcasa":1109,"amili":1110,"Ġcan":1111,"uma":1112,"Ġap":1113,"Ġcomida":1114,"Ġlleg":1115,"Ġtoda":1116,"ĠDios":1117,"ÃŃo":1118,"Ġpensami":1119,"Ġfamili":1120,"olo":1121,"dar":1122,"bia":1123,"Con":1124,"Ġmam":1125,"tulay":1126,"Welu":1127,"kÃ¼m":1128,"Ġfel":1129,"Ġenfermo":1130,"vÃŃa":1131,"Ġenfermedades":1132,"Ġreci":1133,"In":1134,"La":1135,"esto":1136,"ana":1137,"cas":1138,"Ġ,":1139,"Ġles":1140,"Ġtrem":1141,"Ġconocimiento":1142,"Ġdos":1143,"tigu":1144,"todo":1145,"Ġmadre":1146,"Ġhijos":1147,"puÃ©s":1148,"ĠsÃ©":1149,"+/":1150,"ĠĠĠĠ":1151,"/+":1152,"Ġcualquier":1153,"Vey":1154,"io":1155,"ne":1156,"Ġven":1157,"Ġpitalmu":1158,"kÃ¼le":1159,"Ġngelay":1160,"emedio":1161,"aa":1162,"mÃ¼le":1163,"dan":1164,"Ġtachi":1165,"kemu":1166,"Claro":1167,"De":1168,"Ġpinge":1169,"Ġancian":1170,"quiera":1171,"Ġdebe":1172,"Ġhac":1173,"ĠinchiÃ±":1174,"Ġlu":1175,"Ġrogativa":1176,"yi":1177,"mapu":1178,"so":1179,"kuy":1180,"ĠpÃ¼to":1181,"Re":1182,"tas":1183,"len":1184,"antes":1185,"ece":1186,"ĠtÃ¼fachi":1187,"ido":1188,"Al":1189,"ĠfÃ¼ta":1190,"Ġuno":1191,"ÃŃas":1192,"Ã¼Ã±":1193,"Ġkam":1194,"An":1195,"kelafuy":1196,"Ġnien":1197,"Ġvan":1198,"Ġab":1199,"echa":1200,"Ġres":1201,"ĠallÃ¡":1202,"awida":1203,"ie":1204,"Ġdio":1205,"Chem":1206,"entos":1207,"Ġescu":1208,"Ã¼rke":1209,"Que":1210,"ĠkiÃ±eke":1211,"ĠmÃ¼na":1212,"Ġsang":1213,"rim":1214,"Ġcoloc":1215,"pichi":1216,"ĠkÃ¼da":1217,"ha":1218,"Ġfamilia":1219,"Ġtiem":1220,"br":1221,"cion":1222,"doy":1223,"Ġvem":1224,"ĠtenÃŃa":1225,"las":1226,"Ġlongko":1227,"Ġke":1228,"ymi":1229,"ĠestÃ¡n":1230,"erki":1231,"Ġterm":1232,"ua":1233,"Hay":1234,"Ġem":1235,"Rume":1236,"Ku":1237,"Ġhacen":1238,"To":1239,"Ġir":1240,"Ġayu":1241,"ĠserÃ¡":1242,"ĠdÃŃa":1243,"pen":1244,"den":1245,"Ġparte":1246,"Ġdew":1247,"tÃ¼fi":1248,"--------":1249,"MÃ¼l":1250,"Ġpichikeche":1251,"Ġtre":1252,"imos":1253,"gual":1254,"Ġruka":1255,"Ġpensamiento":1256,"muen":1257,"elli":1258,"eneu":1259,"ado":1260,"Ġjun":1261,"Ġmalo":1262,"Ġnewen":1263,"imon":1264,"ante":1265,"fri":1266,"Ġtan":1267,"ritu":1268,"Yo":1269,"tin":1270,"Ġci":1271,"engen":1272,"Ġpro":1273,"Ġveyta":1274,"ĠacÃ¡":1275,"uel":1276,"muy":1277,"ad":1278,"Ġconoce":1279,"kefiÃ±":1280,"Ġne":1281,"'m":1282,"ras":1283,"ĠÃ±uke":1284,"Ġdeci":1285,"Ġasun":1286,"Qu":1287,"pel":1288,"mÃ¼li":1289,"ver":1290,"tami":1291,"Ġcal":1292,"ĠkÃ¼mey":1293,"Ġtiempo":1294,"KÃ¼":1295,"Ġsangre":1296,"ciendo":1297,"ellu":1298,"Ġbuena":1299,"*..":1300,"lli":1301,"Ġvivi":1302,"Ġesp":1303,"engi":1304,"Le":1305,"Ġdigo":1306,"Ġencon":1307,"Ġba":1308,"ida":1309,"Ġlamuen":1310,"Para":1311,"puy":1312,"olvi":1313,"Ġsaben":1314,"Chum":1315,"pun":1316,"Ġpelo":1317,"Ġsus":1318,"wÃ¼":1319,"Ġ?":1320,"Ġpin":1321,"Ġdol":1322,"Ġexiste":1323,"Ġmalle":1324,"Ġfemuechi":1325,"ĠC":1326,"muni":1327,"Ġ+/":1328,"tru":1329,"Ġdecir":1330,"Ġpla":1331,"Ġsiempre":1332,"Ġu":1333,"ĠÃ¼y":1334,"Ġporque":1335,"Ġvino":1336,"Ġsaber":1337,"Ġpichin":1338,"oraz":1339,"Cuando":1340,"emechi":1341,"ayu":1342,"ungun":1343,"tiene":1344,"Ta":1345,"Me":1346,"Ġdoc":1347,"once":1348,"Ġantigu":1349,"Ġpichike":1350,"ĠcÃ³mo":1351,"tura":1352,"Ġpienu":1353,"Ġcer":1354,"imay":1355,"Ġchau":1356,"Ġjo":1357,"Ġpingeki":1358,"Ġcar":1359,"ange":1360,"kefun":1361,"ungi":1362,"Ġhici":1363,"ĠdecÃŃa":1364,"rÃ¡":1365,"Ġmala":1366,"Ãºn":1367,"KiÃ±e":1368,"Ġcoraz":1369,"Ġwin":1370,"Ġestan":1371,"ĠaÃ±o":1372,"ram":1373,"Ġvin":1374,"Ġpiki":1375,"Ġvisi":1376,"Ġval":1377,"zco":1378,"osta":1379,"Mapu":1380,"kÃ¼nu":1381,"Ġfal":1382,"Ġmari":1383,"Ġsea":1384,"ĠseÃ±":1385,"fer":1386,"Ġfill":1387,"tam":1388,"wen":1389,"Ġestamos":1390,"ewla":1391,"Ġenferma":1392,"algun":1393,"ĠnomÃ¡s":1394,"Ġestu":1395,"Ġsiquiera":1396,"poco":1397,"Ġclaro":1398,"Ġpregun":1399,"Ġdoctor":1400,"Ã©l":1401,"Ġgra":1402,"Esta":1403,"Ġkuy":1404,"ole":1405,"ewe":1406,"Ġfo":1407,"ĠwÃ¼n":1408,"il":1409,"ĠkÃ¼pal":1410,"Ġduam":1411,"Ġnue":1412,"ĠkÃ¼mel":1413,"ĠconversaciÃ³n":1414,"Como":1415,"pas":1416,"Ġepu":1417,"ĠwÃ¼la":1418,"munidad":1419,"kÃ¼li":1420,"viÃ±":1421,"Ġtran":1422,"elafuy":1423,"Ġabu":1424,"Ã¼tr":1425,"Ġmawida":1426,"',":1427,"je":1428,"ĠkÃ¼mi":1429,"Ã³lo":1430,"trofill":1431,"Ġllam":1432,"ĠngÃ¼tram":1433,"donde":1434,"Ġfele":1435,"Pu":1436,"Ġdeb":1437,"mal":1438,"var":1439,"tual":1440,"Ġrupa":1441,"Ġmonta":1442,"cÃ³mo":1443,"Ġlof":1444,"Ġsobre":1445,"nosotros":1446,"Ġigual":1447,"Ġqueda":1448,"Ġmongel":1449,"pelay":1450,"dio":1451,"Ġmuch":1452,"Ġsoy":1453,"kefi":1454,"Mo":1455,"Pe":1456,"unca":1457,"Ġdia":1458,"Ġesos":1459,"oma":1460,"Ġtripay":1461,"tambien":1462,"angi":1463,"Ġdan":1464,"Ġcomunidad":1465,"Ġhaber":1466,"ig":1467,"Ġho":1468,"femuechi":1469,"tul":1470,"Ġcha":1471,"Ġprim":1472,"Ġmanera":1473,"Ġconocer":1474,"enes":1475,"machi":1476,"Ġchu":1477,"pÃ¼l":1478,"Ġvas":1479,"Ġher":1480,"Ġdis":1481,"oye":1482,"ĠcorazÃ³n":1483,"Ahora":1484,"ĠmaÃ±":1485,"Ġsabi":1486,"tua":1487,"Ġlugar":1488,"kam":1489,"man":1490,"Ġer":1491,"Ġante":1492,"Ġpapay":1493,"TÃ¼":1494,"eymu":1495,"ĠsueÃ±o":1496,"ĠdÃŃas":1497,"Ġtraf":1498,"Ġdolor":1499,"jar":1500,"Ġplata":1501,"Ġ*..":1502,"mÃ¼na":1503,"ulu":1504,"Ġdieron":1505,"Tra":1506,"We":1507,"Asi":1508,"Ġaku":1509,"tulu":1510,"dia":1511,"Ġllega":1512,"cos":1513,"mita":1514,"Ġyagel":1515,"Ġmapuches":1516,"hab":1517,"ter":1518,"Ġmiaw":1519,"Ġforo":1520,"Ġnuestra":1521,"Ġhuincas":1522,"Ġanim":1523,"fulu":1524,"Ġpeque":1525,"Ġlon":1526,"ĠmÃ¼leki":1527,"Ġorina":1528,"Ġencuentra":1529,"Ġcreo":1530,"solo":1531,"Ġmen":1532,"Ġsacar":1533,"gi":1534,"Ġdicho":1535,"Ġcuer":1536,"Ġalgunos":1537,"Ġella":1538,"ewen":1539,"Ġfui":1540,"Ġngen":1541,"Ġnielu":1542,"veymu":1543,"Ġfam":1544,"Eymi":1545,"tilla":1546,"Ġentre":1547,"Ġtuku":1548,"Ġtodas":1549,"Ġmoll":1550,"Ġasunto":1551,"eymÃ¼n":1552,"Ġpaso":1553,"ien":1554,"ĠÃ©s":1555,"Ġaf":1556,"Ġsobr":1557,"Ġbeb":1558,"Ġhicieron":1559,"ano":1560,"Ġdar":1561,"Ġkimlay":1562,"Ġcanelo":1563,"ella":1564,"ker":1565,"ĠmÃ¼te":1566,"Ġwitra":1567,"ukey":1568,"ĠS":1569,"Ġina":1570,"ĠiÃ±chiÃ±":1571,"ĠpÃ¼toko":1572,"Ġpod":1573,"ĠCh":1574,"Ġtam":1575,"ron":1576,"Kom":1577,"ema":1578,"Ġharto":1579,"Ġngillatu":1580,"wa":1581,"wetulay":1582,"Ġparece":1583,"iÃ±che":1584,"Ġsali":1585,"Ġfeley":1586,"Ġkimla":1587,"fÃ¼Ã±":1588,"Ġnewe":1589,"Feli":1590,"vun":1591,"Ġsegu":1592,"Ġconozco":1593,"ĠdespuÃ©s":1594,"ĠmamÃ¼ll":1595,"petu":1596,"ĠrÃ¼":1597,"kimi":1598,"ĠseÃ±ora":1599,"Ġkull":1600,"Ġkimni":1601,"Ġmujeres":1602,"Ġfa":1603,"vem":1604,"Ġpepi":1605,"Kutran":1606,"Ġlado":1607,"Ġlevan":1608,"quÃ©":1609,"ĠpÃ¼tra":1610,"ĠkÃ¼l":1611,"Ġcuerpo":1612,"Inche":1613,"ĠngÃ¼l":1614,"aria":1615,"tenmu":1616,"ĠmÃ¼lelu":1617,"Ġmayor":1618,"Ġves":1619,"tew":1620,"tati":1621,"Ġay":1622,"Ġanimal":1623,"ĠtodavÃŃa":1624,"rÃ¼f":1625,"ser":1626,"Ã±ma":1627,"Ti":1628,"Ġhan":1629,"todos":1630,"ĠwÃ¼l":1631,"Ġmucha":1632,"ĠÃ©l":1633,"Ġdifer":1634,"Ġencontra":1635,"ĠmontaÃ±a":1636,"aquÃŃ":1637,"Ġram":1638,"ĠreciÃ©n":1639,"Ġfente":1640,"Ġpingen":1641,"Ġvie":1642,"ste":1643,"Ġpasto":1644,"Ġdejo":1645,"chumngechi":1646,"Ġperimon":1647,"ĠdecÃŃan":1648,"Ġpie":1649,"ĠkÃ¼daw":1650,"QuÃ©":1651,"Ġhasta":1652,"Ġpul":1653,"Ġkachu":1654,"CÃ³mo":1655,"ÃŃritu":1656,"Ġfi":1657,"Ġniey":1658,"tural":1659,"day":1660,"Ġtipo":1661,"Ġcomp":1662,"Ġtoma":1663,"Ġsobrino":1664,"remedio":1665,"Ġwinka":1666,"Ġkutranmu":1667,"trol":1668,"fentun":1669,"Ġgrande":1670,"Ha":1671,"Ġmapumu":1672,"Ġhija":1673,"ita":1674,"Ġpuro":1675,"ĠtÃº":1676,"Ġplan":1677,"Ġngillatun":1678,"mapuche":1679,"mÃ¼":1680,"ngel":1681,"riba":1682,"Ġiba":1683,"Ġamuy":1684,"pente":1685,"ĠL":1686,"KÃ¼me":1687,"??":1688,"ngetuy":1689,"Ġkimi":1690,"Ġcomer":1691,"ĠngÃ¼nechen":1692,"Ġllev":1693,"ĠespÃŃritu":1694,"yin":1695,"Ġalgunas":1696,"Ġ...":1697,"feypi":1698,"Ġpapel":1699,"Us":1700,"tuku":1701,"tripa":1702,"kulel":1703,"ĠdueÃ±o":1704,"ĠsabÃŃa":1705,"vin":1706,"chen":1707,"Ġjoven":1708,"Entonces":1709,"Ġpil":1710,"ria":1711,"ewelay":1712,"gue":1713,"Femngechi":1714,"MÃ¼na":1715,"Ġapren":1716,"Ġtermin":1717,"Usted":1718,"taiÃ±":1719,"trÃ¼n":1720,"cias":1721,"Machi":1722,"Ġtani":1723,"Ġnuestro":1724,"esos":1725,"Tu":1726,"Ã¼u":1727,"wÃ¼l":1728,"ĠkÃ¼meke":1729,"Kuyfi":1730,"Ġchumngechi":1731,"Ġdeja":1732,"Ġmamita":1733,"eula":1734,"Doy":1735,"Remedio":1736,"ĠĠčĊ":1737,"chemu":1738,"Ki":1739,"via":1740,"Ġent":1741,"Ġhablar":1742,"ĉĉĉĉ":1743,"Ġsungu":1744,"ĠtÃ¼fichi":1745,"............":1746,"Ġhabia":1747,"ĠpÃ¼ta":1748,"yen":1749,"antÃ¼":1750,"Ġengu":1751,"entre":1752,"ĠT":1753,"ÃŃamos":1754,"fermedad":1755,"tunge":1756,"oro":1757,"Ġpipi":1758,"wingka":1759,"tÃ¼fachi":1760,"Ġtrabajo":1761,"ĠM":1762,"Ġkintu":1763,"Ġfeli":1764,"ĠwÃ¼":1765,"Ġtenia":1766,"fuiÃ±":1767,"Ġgua":1768,"Ġtripaki":1769,"Ġsabidu":1770,"tÃ¡":1771,"ur":1772,"ĠfÃ¼tra":1773,"Ġvivir":1774,"ul":1775,"chin":1776,"omos":1777,"Ġwill":1778,"quel":1779,"Ġenfer":1780,"Ġnentu":1781,"Ġtomar":1782,"Ġfaw":1783,"Ġdistin":1784,"jas":1785,"allo":1786,"Ġchico":1787,"Ġchew":1788,"Ġngewelay":1789,"inchiÃ±":1790,"Ġllegar":1791,"fal":1792,"amun":1793,"Ġprimero":1794,"enew":1795,"Ġagra":1796,"oso":1797,"ĠkatrÃ¼":1798,"Ġolvi":1799,"Ġposta":1800,"Esa":1801,"mÃ¼ley":1802,"Ġrespe":1803,"dungu":1804,"kel":1805,"AhÃŃ":1806,"ĠkiÃ±ekemu":1807,"Ġtamu":1808,"Ġtun":1809,"ĠngÃ¼":1810,"ĠniÃ±o":1811,"erto":1812,"kentu":1813,"Ġsola":1814,"Ġlonko":1815,"umu":1816,"Ġsue":1817,"Ġtro":1818,"zas":1819,"Ġpiken":1820,"tado":1821,"Ġestos":1822,"ĠmamÃ¡":1823,"Ġverdad":1824,"ĠfÃ¼cha":1825,"aaa":1826,"angelu":1827,"Ġenfermi":1828,"Mu":1829,"MÃ¼le":1830,"vas":1831,"Ġalim":1832,"kiÃ±eke":1833,"ĠhacÃŃa":1834,"sab":1835,"fiel":1836,"Ġamar":1837,"Ġgrandes":1838,"Mapuche":1839,"Ġ(":1840,"ge":1841,"Ġesas":1842,"Ġvis":1843,"pey":1844,"Ġvol":1845,"toda":1846,"Ġarriba":1847,"fo":1848,"Ã±mang":1849,"Ġsolamente":1850,"Ġpeno":1851,"fÃ¼n":1852,"Ġpun":1853,"Ġentu":1854,"entren":1855,"Ġlim":1856,"mientos":1857,"awe":1858,"Ġpiw":1859,"Ġsufri":1860,"Ġdungumu":1861,"Ġmar":1862,"ĠkÃ¼pa":1863,"Ġali":1864,"ĠhabÃŃan":1865,"Ġnoche":1866,"uno":1867,"ĠtenÃŃan":1868,"Ġmismo":1869,"llo":1870,"Ġpalo":1871,"Ġdios":1872,"Ġmes":1873,"Ġtienes":1874,"Ġustedes":1875,"Ni":1876,"ye":1877,"Ġtenemos":1878,"ciones":1879,"pew":1880,"Ġpres":1881,"ĠmÃ¼lekefuy":1882,"ĠallkÃ¼":1883,"Ġtampoco":1884,"ley":1885,"riÃ³":1886,"Ġmongenmu":1887,"Ġdungun":1888,"Ġvine":1889,"rÃŃo":1890,"ĠP":1891,"Ġquier":1892,"Ġense":1893,"Ġvuel":1894,"Ġkal":1895,"Ġkor":1896,"wetu":1897,"kunu":1898,"hasta":1899,"Ġavan":1900,"reg":1901,"duam":1902,"Ġrupal":1903,"Ġpon":1904,"pia":1905,"Ġrupay":1906,"dura":1907,"ĠH":1908,"buen":1909,"fam":1910,"taba":1911,"emÃ¡s":1912,"bamos":1913,"kintu":1914,"nues":1915,"chew":1916,"Feychi":1917,"Ġtres":1918,"kÃ¼len":1919,"tuken":1920,"ĠmollfÃ¼Ã±":1921,"mÃ¡s":1922,"Ġnunca":1923,"Ġcui":1924,"Ġhice":1925,"Ġveymu":1926,"Ġkutrani":1927,"Ġkimlan":1928,"Padre":1929,"anti":1930,"enga":1931,"fui":1932,"MÃ¼li":1933,"ieron":1934,"Ġsem":1935,"Ġkimn":1936,"Ġpasar":1937,"Ġestas":1938,"ĠmÃ¼lefuy":1939,"Ġpewma":1940,"hue":1941,"lor":1942,"enti":1943,"chay":1944,"Ġhermanos":1945,"ĠadÃ¼m":1946,"Ġancianos":1947,"Ġentonce":1948,"Ġperdi":1949,"Antes":1950,"rar":1951,"ĠpifiÃ±":1952,"Ġpartes":1953,"ĠĠĠĠĠĠĠĠ":1954,"Ġfan":1955,"chumuechi":1956,"Ġcaballo":1957,"gnos":1958,"Ġmalas":1959,"Ġcamin":1960,"ian":1961,"ula":1962,"Ġsac":1963,"Buen":1964,"bres":1965,"gnosti":1966,"Ġwen":1967,"mente":1968,"Ġami":1969,"Ġsomos":1970,"Ġpasmo":1971,"les":1972,"ngekey":1973,"cio":1974,"lel":1975,"tukey":1976,"Ġcampo":1977,"tachi":1978,"Wi":1979,"ĠpÃ¼le":1980,"Ġpalab":1981,"All":1982,"Ġnatural":1983,"Ġempa":1984,"dra":1985,"kelaymi":1986,"Ġconversar":1987,"ngilla":1988,"Ġsaca":1989,"Ġpilun":1990,"Ġmor":1991,"ĠtÃŃo":1992,"Ġayuda":1993,"Ġchemu":1994,"koy":1995,"awÃ¼n":1996,"Ġrepente":1997,"Ġfemi":1998,"Ġkar":1999,"Ġrum":2000,"mon":2001,"ungen":2002,"Ã¼llÃ¼":2003,"Ġfeytichi":2004,"Ġcoloca":2005,"Ġconocimientos":2006,"pin":2007,"Ġlla":2008,"ellipu":2009,"emas":2010,"tuay":2011,"Ã³ven":2012,"Ġhago":2013,"Ġcome":2014,"Ġnag":2015,"erpu":2016,"Ġcul":2017,"entro":2018,"Ġfemechi":2019,"ablo":2020,"Ġleche":2021,"Ġkutrankaw":2022,"kefuyngÃ¼n":2023,"Ġanimales":2024,"kiÃ±":2025,"Ġitrofill":2026,"Este":2027,"ĠrÃ¼f":2028,"rÃ¼":2029,"Ã±pÃ¼le":2030,"Ġvamos":2031,"pingi":2032,"ĠmÃ¼len":2033,"Ġmejorar":2034,"Ġbebe":2035,"Ġtanto":2036,"Solo":2037,"unque":2038,"Ġning":2039,"Ġllo":2040,"despuÃ©s":2041,"ngo":2042,"Ġtal":2043,"tis":2044,"iÃ±mu":2045,"Ġgus":2046,"Ġtrafentu":2047,"afun":2048,"pÃ¼m":2049,"taron":2050,"cre":2051,"gan":2052,"Ġwa":2053,"Ġpasado":2054,"TÃ¼fa":2055,"ngeal":2056,"ĠkÃ¼yen":2057,"ĠjÃ³ven":2058,"Ġvo":2059,"Ġchil":2060,"Ġduele":2061,"Ġojo":2062,"ona":2063,"dew":2064,"Ngelay":2065,"Ġnombre":2066,"paÃ±":2067,"Los":2068,"Ġkaw":2069,"trun":2070,"Ġwecha":2071,"Ġhier":2072,"Ã©di":2073,"fec":2074,"Ġmedio":2075,"Ġex":2076,"kÃ¼lelu":2077,"Ġperimontun":2078,"epu":2079,"mucho":2080,"Ġdejar":2081,"ĠA":2082,"rio":2083,"Ġllego":2084,"xiste":2085,"Ġcarne":2086,"olil":2087,"uenta":2088,"Ġotros":2089,"ĠdejÃ³":2090,"Ġdiagnosti":2091,"tante":2092,"kol":2093,"peyu":2094,"san":2095,"Ġfali":2096,"tule":2097,"lafimi":2098,"Ġhartos":2099,"tuke":2100,"Ġnielay":2101,"llemay":2102,"Ġcasi":2103,"osa":2104,"Ġviene":2105,"Ġtrafentun":2106,"atro":2107,"Ġpura":2108,"Ġfelen":2109,"ĠPadre":2110,"Ġoper":2111,"ĠtÃ¼famu":2112,"ĠsÃ³lo":2113,"ĠsabidurÃŃa":2114,"aku":2115,"tungi":2116,"ĠtÃ¼va":2117,"Ġhecho":2118,"Ġdewma":2119,"Ġrukamu":2120,"ngewelay":2121,"Ġmuchos":2122,"af":2123,"ĠmÃŃ":2124,"Ġveychi":2125,"ĠeymÃ¼n":2126,"siempre":2127,"kale":2128,"Ġwedake":2129,"Ġpiam":2130,"Ã¼mu":2131,"Ġhoja":2132,"ĠkÃ¼la":2133,"domo":2134,"ngekefuy":2135,"ĠÃ©ste":2136,"entun":2137,"Ġbo":2138,"Ġmalig":2139,"ĠkoÃ±i":2140,"Ġescucha":2141,"ĠmaÃ±ana":2142,"cido":2143,"estaba":2144,"uni":2145,"Ġmachimu":2146,"ĠserÃŃa":2147,"Ġaqui":2148,"Ġsera":2149,"Ġfeula":2150,"arse":2151,"Ġmate":2152,"Ġblan":2153,"yagel":2154,"dal":2155,"Ġviento":2156,"Femuechi":2157,"Ġob":2158,"Ġchumuechi":2159,"ĠhacÃŃan":2160,"KÃ¼m":2161,"Ã¼w":2162,"ewetu":2163,"ones":2164,"teu":2165,"Ġcontrol":2166,"Feytichi":2167,"ĠmÃ©di":2168,"Ġeno":2169,"Ġencuentro":2170,"Ġneces":2171,"Kidu":2172,"Ġestaban":2173,"ewi":2174,"komu":2175,"ĠniÃ±a":2176,"Ġnuestros":2177,"ĠfrÃŃo":2178,"Ġdiciendo":2179,"Ġanay":2180,"Ġquien":2181,"Ġbeber":2182,"Ġdiferentes":2183,"gen":2184,"Ġfina":2185,"toko":2186,"Ġbuenos":2187,"Ġmuer":2188,"tÃ¼m":2189,"Ġandaba":2190,"Ġkuyvi":2191,"ĠsaliÃ³":2192,"kechi":2193,"Ġfeyentu":2194,"Ġye":2195,"ngefuy":2196,"Ġrecu":2197,"Todo":2198,"Ġmuchas":2199,"Ġcin":2200,"Ãĳ":2201,"Ġoc":2202,"kingÃ¼n":2203,"Ġpoder":2204,"cheng":2205,"Ġdepue":2206,"Ġconse":2207,"enechen":2208,"palu":2209,"ĠfÃ¼take":2210,"Ġeran":2211,"Ġakuy":2212,"Ġfau":2213,"die":2214,"Ġmew":2215,"Ġhaciendo":2216,"Ġbuenas":2217,"Pichi":2218,"Ġrem":2219,"ima":2220,"media":2221,"weda":2222,"Ġtrabaj":2223,"ĠjÃ³venes":2224,"Pues":2225,"fÃ¼l":2226,"kefel":2227,"uyo":2228,"Ġtukulel":2229,"algunos":2230,"Ġramtu":2231,"kawi":2232,"eyem":2233,"Ġata":2234,"echu":2235,"Muy":2236,"fan":2237,"Ġdaba":2238,"ngÃ¼l":2239,"Ġamul":2240,"Ġconoces":2241,"Pew":2242,"leg":2243,"ĠanÃ¼m":2244,"bol":2245,"kefin":2246,"Ġini":2247,"ermano":2248,"Ġhubi":2249,"iste":2250,"Ġchuchi":2251,"Ġguagua":2252,"Ġagrade":2253,"Ġora":2254,"tukefuy":2255,"ini":2256,"Ġpikey":2257,"ĠÃ±ukey":2258,"Ġfuerte":2259,"Ġescuch":2260,"Ġnuevo":2261,"cin":2262,"elngi":2263,"Ġdiablo":2264,"Ġpuedo":2265,"ĠDio":2266,"fken":2267,"Ġdeuma":2268,"Ġalgo":2269,"Ġvalor":2270,"ĠngÃ¼lam":2271,"Ġvisto":2272,"Ġentro":2273,"ĠmÃ¼r":2274,"ito":2275,"kÃ¼ley":2276,"Ġmapuchengen":2277,"Ã±as":2278,"Ġtoc":2279,"ÃŃz":2280,"engu":2281,"Ġquer":2282,"tÃ³":2283,"ĠbiÃ©n":2284,"Ġmayta":2285,"feytichi":2286,"Ġabuela":2287,"kerki":2288,"Ġfoye":2289,"Ġpuw":2290,"dicen":2291,"ĠTemu":2292,"ngekelay":2293,"ĠpÃ¼r":2294,"Ġkoni":2295,"eru":2296,"trÃ³":2297,"Ġmonte":2298,"tani":2299,"uego":2300,"Ġyam":2301,"Ġhabi":2302,"ĠpasÃ³":2303,"ĠÃ±ukeyem":2304,"Ã±e":2305,"muelu":2306,"tral":2307,"laymi":2308,"Ã³nde":2309,"'?":2310,"ual":2311,"Ġkake":2312,"tuymi":2313,"cualquier":2314,"Algun":2315,"ros":2316,"tamu":2317,"ĠpuÃ©s":2318,"Esto":2319,"IÃ±":2320,"Pas":2321,"trem":2322,"Ġdejaron":2323,"iw":2324,"Ã±u":2325,"Ġpies":2326,"Ġpekan":2327,"veychi":2328,"tÃ¼fey":2329,"ĠmejorÃ³":2330,"MÃ¼ley":2331,"sol":2332,"Ãľ":2333,"Ġaw":2334,"ĠfÃ¼r":2335,"Ġsuf":2336,"Ġcorta":2337,"Hab":2338,"dungun":2339,"ĠaÃºn":2340,"Ġhacia":2341,"Ġamun":2342,"Ġmayores":2343,"fiyiÃ±":2344,"Ġkomu":2345,"Nos":2346,"Ġmol":2347,"Ġespi":2348,"Ġcalor":2349,"habÃŃa":2350,"anto":2351,"Ġandar":2352,"Ġpresi":2353,"anda":2354,"Ġapar":2355,"Ġkude":2356,"Femi":2357,"Tami":2358,"Ġagu":2359,"Ġgu":2360,"estÃ¡":2361,"Ġfewla":2362,"Ġmatr":2363,"katu":2364,"Ġkul":2365,"Ġentrar":2366,"ĠvisiÃ³n":2367,"algunas":2368,"Ġus":2369,"enfermedad":2370,"ĠkÃ¼rÃ¼f":2371,"tuyngÃ¼n":2372,"Ġquebra":2373,"Ġsigue":2374,"tando":2375,"avuy":2376,"pera":2377,"uyu":2378,"entonce":2379,"Ġtus":2380,"Ġotras":2381,"Ru":2382,"vel":2383,"ĠJ":2384,"ngu":2385,"ciÃ³":2386,"Ġmuday":2387,"chaw":2388,"Ġprepara":2389,"hi":2390,"Ġwing":2391,"Ġhombres":2392,"Ġpingekey":2393,"gÃ¼":2394,"ifi":2395,"zar":2396,"Ġvivo":2397,"engeki":2398,"Ġkafey":2399,"ĠSanti":2400,"Vem":2401,"dera":2402,"Ġsin":2403,"astante":2404,"Ġcuida":2405,"Ġharina":2406,"tÃ¼fichi":2407,"gia":2408,"ĠpÃ¼llÃ¼":2409,"Ġmaw":2410,"Ġwaria":2411,"Ġando":2412,"fuera":2413,"elen":2414,"Ġau":2415,"Ġpewen":2416,"ĠllegÃ³":2417,"Todos":2418,"Ġjunta":2419,"Mi":2420,"rpu":2421,"Ġama":2422,"ÃŃdo":2423,"Ġpien":2424,"Ġdientes":2425,"filu":2426,"Ġcara":2427,"claro":2428,"alla":2429,"amÃ¼ll":2430,"engey":2431,"hu":2432,"Ġmeno":2433,"meke":2434,"isu":2435,"Ġhora":2436,"Amu":2437,"ucar":2438,"Ġkin":2439,"Ġinmedia":2440,"cono":2441,"ĠkiduengÃ¼n":2442,"Ġquiere":2443,"ĠkuÃ±i":2444,"ĠÃ±am":2445,"Ġsenti":2446,"Ġanti":2447,"ĠfotÃ¼m":2448,"Ġtroki":2449,"erte":2450,"daw":2451,"lafiÃ±":2452,"Ġgentes":2453,"amapu":2454,"fule":2455,"Tiene":2456,"Ġtar":2457,"Ġcheu":2458,"Ã©ste":2459,"Ġmano":2460,"ellipun":2461,"Ġpreguntar":2462,"Ġkawellu":2463,"PÃ¼":2464,"Petu":2465,"kem":2466,"chan":2467,"emor":2468,"Ġcali":2469,"fuymi":2470,"Ġiy":2471,"ctor":2472,"kell":2473,"Ġwenu":2474,"Ġyem":2475,"Ġchicos":2476,"Ġpichiken":2477,"palda":2478,"Ġperd":2479,"Ġpiedra":2480,"Un":2481,"ewÃ¼n":2482,"Ġniy":2483,"Ġiyagel":2484,"Ġcerro":2485,"ĠenseÃ±":2486,"Ġ....":2487,"inu":2488,"Ġpipen":2489,"vu":2490,"erno":2491,"Ġkellu":2492,"Ġaj":2493,"pio":2494,"Feypi":2495,"ĠkulliÃ±":2496,"keymi":2497,"Ġcomen":2498,"Ġvemuechi":2499,"Tri":2500,"Ġhas":2501,"Ġlava":2502,"Ġkutranki":2503,"Ġviv":2504,"Ġsabes":2505,"Ġdado":2506,"Ġanciana":2507,"Ġvemngechi":2508,"Ġtend":2509,"ago":2510,"yem":2511,"tuw":2512,"Ġmalos":2513,"pitalmu":2514,"Ġconocen":2515,"ble":2516,"eg":2517,"dec":2518,"Ġinvi":2519,"Ġalcan":2520,"Ġabuelo":2521,"Ġespiritu":2522,"pela":2523,"Ġayi":2524,"Ġespalda":2525,"Ġtrigo":2526,"fÃ¼ta":2527,"lelu":2528,"tengo":2529,"Ġ................":2530,"Ġaz":2531,"ngele":2532,"Ġfueron":2533,"Ġkontu":2534,"????":2535,"Ġalivi":2536,"dill":2537,"Ġamule":2538,"Te":2539,"Ġara":2540,"ngeken":2541,"Ġsir":2542,"feula":2543,"Ġanciano":2544,"bl":2545,"fele":2546,"aste":2547,"Ġdecian":2548,"kake":2549,"Ġcamino":2550,"sal":2551,"tÃ¡n":2552,"uw":2553,"entra":2554,"ĠtapÃ¼l":2555,"Ġflor":2556,"Ġdecia":2557,"Ġhabla":2558,"ĠhabrÃ¡":2559,"llimay":2560,"Ġconta":2561,"keyngÃ¼n":2562,"Ġveypi":2563,"Weda":2564,"afiÃ±":2565,"gos":2566,"uan":2567,"altu":2568,"emeu":2569,"Ġkonki":2570,"pÃ¼ra":2571,"cheu":2572,"Ġantiguamente":2573,"ĠwilleÃ±":2574,"Ġpel":2575,"ellos":2576,"kau":2577,"hace":2578,"Ġafi":2579,"Ġfentren":2580,"ungey":2581,"afuymi":2582,"ĠwÃ¼ne":2583,"todavÃŃa":2584,"huen":2585,"Ġaquel":2586,"Ġgan":2587,"ĠalÃ¼n":2588,"Ġlleva":2589,"Ġmenos":2590,"Ġplanta":2591,"Ġinchin":2592,"encia":2593,"Ġpan":2594,"Ġtiy":2595,"Ġmongey":2596,"Ġtray":2597,"Ġtermina":2598,"Ġasuntos":2599,"Ġestudi":2600,"Na":2601,"fente":2602,"feley":2603,"pÃ¼tra":2604,"Ġcuatro":2605,"kenu":2606,"Ġvalora":2607,"Ġmorir":2608,"eran":2609,"Ġdung":2610,"Ġbusca":2611,"Fill":2612,"eni":2613,"kÃ¼fÃ¼":2614,"ĠkÃ¼mefuy":2615,"chuchi":2616,"Ġantiguos":2617,"ĠG":2618,"ĠÃ¼tr":2619,"Ġafuera":2620,"Ġfe":2621,"Ġvive":2622,"Ġsuce":2623,"son":2624,"alo":2625,"tend":2626,"ĠpÃ¼ra":2627,"ĠtrÃ¼r":2628,"Ġgracias":2629,"Ġencontrar":2630,"Ġmeli":2631,"Ġenferman":2632,"Ġtenido":2633,"bo":2634,"jan":2635,"Ġwente":2636,"voy":2637,"ĠÃ¼rke":2638,"keyu":2639,"nien":2640,"har":2641,"Ġestado":2642,"ĠsabÃŃan":2643,"Ġfuerzas":2644,"Ġvinieron":2645,"dor":2646,"existe":2647,"dido":2648,"Ġchica":2649,"kÃ¼y":2650,"Ġpasando":2651,"Ġtrabajar":2652,"Ġherida":2653,"Ġkullin":2654,"bro":2655,"kin":2656,"men":2657,"mas":2658,"pom":2659,"eya":2660,"Ġaca":2661,"ĠtÃŃa":2662,"Ġfen":2663,"Ã¡pi":2664,"ngeay":2665,"eluwÃ¼n":2666,"Ġpastilla":2667,"ĠbaÃ±":2668,"gro":2669,"lÃ¼":2670,"Ġkisu":2671,"Ġacu":2672,"iÃ±chiÃ±":2673,"ĠpÃ¼rÃ¼m":2674,"jal":2675,"udad":2676,"Ġ\"":2677,"Ġsalir":2678,"estoy":2679,"ĠChaw":2680,"Ġpiwke":2681,"kar":2682,"Ġvolvi":2683,"Ġpiy":2684,"kimÃ¼n":2685,"Ġescuchado":2686,"ac":2687,"del":2688,"kor":2689,"sÃ³lo":2690,"chun":2691,"ane":2692,"tukun":2693,"mechi":2694,"pumu":2695,"Ġsigu":2696,"tunmu":2697,"ĠkorÃ¼":2698,"ĠmÃ¼rke":2699,"Su":2700,"otro":2701,"Ġnor":2702,"Ġfir":2703,"tuni":2704,"alquiera":2705,"Ġkuerpu":2706,"ĠleÃ±a":2707,"Ġlichi":2708,"ĠpequeÃ±a":2709,"Ġpalabras":2710,"pelu":2711,"Ġresfri":2712,"itrofill":2713,"kisu":2714,"Ġgri":2715,"kiÃ±ekemu":2716,"wentru":2717,"Ġmama":2718,"Ġcuenta":2719,"chilla":2720,"Ġayudar":2721,"ewetulay":2722,"casi":2723,"Ã¼li":2724,"kamu":2725,"ĠkÃ¼pay":2726,"ĠÃ±awe":2727,"Ġdiferente":2728,"edo":2729,"hermano":2730,"maw":2731,"depue":2732,"quimay":2733,"ĠmuriÃ³":2734,"ĠkÃ¼dau":2735,"----------------":2736,"Ġciudad":2737,"Ġolvida":2738,"ĠR":2739,"Ġkun":2740,"mangi":2741,"Ġpensamientos":2742,"adkÃ¼m":2743,"Ġgracia":2744,"pasa":2745,"Vi":2746,"guen":2747,"Ã±um":2748,"mun":2749,"mejor":2750,"Ġcons":2751,"Ġepe":2752,"ĠraÃŃz":2753,"ĠsoÃ±":2754,"Ġarreg":2755,"Ã¡ncer":2756,"Ġllaman":2757,"cal":2758,"eki":2759,"lÃ¼n":2760,"ngÃ¼":2761,"Ġpilay":2762,"Ġconos":2763,"Ġlejos":2764,"Ġmira":2765,"keyiÃ±":2766,"ĠĠĠ":2767,"Ġsana":2768,"ĠpequeÃ±o":2769,"blo":2770,"Ġtuve":2771,"monge":2772,"fÃ¼cha":2773,"Ġalimento":2774,"Mari":2775,"rÃ©":2776,"tuam":2777,"Ġnieymi":2778,"Ġmawidamu":2779,"emasia":2780,"Ġcinco":2781,"femechi":2782,"tufi":2783,"Ġping":2784,"debe":2785,"Ġpepa":2786,"entuy":2787,"tad":2788,"aya":2789,"Ġilo":2790,"ĠmÃ¼lekey":2791,"ĠÃ±u":2792,"Ġdul":2793,"com":2794,"tÃº":2795,"Ġial":2796,"Ġtripal":2797,"Ġseguir":2798,"zan":2799,"ĠN":2800,"paki":2801,"Ġanchi":2802,"kenolu":2803,"Ġsabia":2804,"Ngilla":2805,"Ġrecien":2806,"Toda":2807,"ĠmaÃ±um":2808,"dando":2809,"otra":2810,"vuel":2811,"ĠpÃ¼n":2812,"ĠrÃ¡pi":2813,"elaymi":2814,"Ġfemlay":2815,"Ġtrata":2816,"Ġsalu":2817,"allÃ¡":2818,"emon":2819,"tuli":2820,"kevun":2821,"feyu":2822,"Ġwaw":2823,"Ġkimnie":2824,"ĠdaÃ±o":2825,"Ġchawem":2826,"Ġcomidas":2827,"omago":2828,"Ġninguna":2829,"rki":2830,"chas":2831,"tuenu":2832,"Ġri":2833,"Ġitro":2834,"Ġvac":2835,"ĠfÃ¼takeche":2836,"vemngechi":2837,"ĠTemuco":2838,"Ġpier":2839,"puro":2840,"engelu":2841,"Ġtut":2842,"Ġblanco":2843,"kali":2844,"pos":2845,"chenge":2846,"Ġtichi":2847,"lebra":2848,"umen":2849,"witra":2850,"Ġfamngechi":2851,"ĠwÃ¼Ã±o":2852,"Ġocur":2853,"IÃ±che":2854,"Fel":2855,"Mal":2856,"Ġpitru":2857,"oca":2858,"Kachu":2859,"ĠnÃ¼tramka":2860,"aunque":2861,"kefimi":2862,"dijo":2863,"Ġwentr":2864,"Ġmiedo":2865,"Ġkimlu":2866,"Ġsitua":2867,"Ġvienen":2868,"Ġtukun":2869,"Ġweche":2870,"Ġtierras":2871,"parece":2872,"kÃ¼mel":2873,"Sab":2874,"estos":2875,"ĠkiÃ±":2876,"uevo":2877,"Ġref":2878,"Porque":2879,"Ġfuego":2880,"Ad":2881,"he":2882,"Ġpenge":2883,"ĠmÃ¼lelay":2884,"Ġide":2885,"quien":2886,"Ġhueso":2887,"alidad":2888,"Ġfantenmu":2889,"nÃ¼tram":2890,"enza":2891,"Ġkangelu":2892,"Ġtenga":2893,"damente":2894,"Ġbastante":2895,"Ġmiau":2896,"bajo":2897,"Ġtrayendo":2898,"fmu":2899,"nunca":2900,"Ġmom":2901,"Ġwesa":2902,"Ġpasaba":2903,"Ġpobre":2904,"Ġbusc":2905,"pichike":2906,"Ġllevaron":2907,"MÃ¼":2908,"ĠÃ¼":2909,"onmu":2910,"dice":2911,"Ġinan":2912,"Ġsabemos":2913,"sabe":2914,"fenu":2915,"ĠMapuche":2916,"alvar":2917,"traf":2918,"Ġtuvo":2919,"Ġpase":2920,"kungi":2921,"omi":2922,"chos":2923,"Ġpiuke":2924,"angey":2925,"Ġsolos":2926,"Ġsob":2927,"Ġmane":2928,"Ġju":2929,"Ġexisten":2930,"tismo":2931,"newe":2932,"tay":2933,"ola":2934,"lafi":2935,"Ġenfermos":2936,"Ġtarde":2937,"MÃ¡s":2938,"tiro":2939,"ĠoÃŃdo":2940,"liwen":2941,"femi":2942,"Ġrul":2943,"Ġalla":2944,"Ġdespues":2945,"kerkefuy":2946,"Ġmeses":2947,"feli":2948,"Ã±mu":2949,"Ġnal":2950,"quito":2951,"Ġestomago":2952,"Ġhuesos":2953,"Ġquem":2954,"Ġcierto":2955,"Ġavanza":2956,"Ġobser":2957,"Ġfolil":2958,"Ġculebra":2959,"Ġwitran":2960,"................................":2961,"kange":2962,"vor":2963,"elmi":2964,"onquimay":2965,"cado":2966,"koni":2967,"ĠÃ¡":2968,"Ġsent":2969,"mis":2970,"tienen":2971,"tenÃŃa":2972,"Ġpueden":2973,"ĠkÃ¼melay":2974,"Veymu":2975,"cor":2976,"uche":2977,"Ġadu":2978,"tir":2979,"fil":2980,"uenu":2981,"Ġtuvi":2982,"angen":2983,"jado":2984,"Ġsanto":2985,"KiÃ±eke":2986,"Ġtrabajando":2987,"emasiado":2988,"cina":2989,"tÃ©":2990,"Ġkoy":2991,"tui":2992,"tuaymi":2993,"Ġandan":2994,"Ġniefuy":2995,"Ġcaminando":2996,"Ġmatrona":2997,"pil":2998,"Ġconver":2999,"ĠtÃ¼fameu":3000,"gado":3001,"tiguamente":3002,"Ġprobl":3003,"Ġsirve":3004,"rado":3005,"Ġlav":3006,"iÃ±o":3007,"Ġyeme":3008,"patuy":3009,"Ġngill":3010,"Ġpare":3011,"Ġpueblo":3012,"Ã±ado":3013,"Dios":3014,"Ġvenir":3015,"Ġamigo":3016,"gent":3017,"Ġpeng":3018,"Ġdaban":3019,"cula":3020,"Ġfemki":3021,"Ġsaco":3022,"ĠconocÃŃ":3023,"Har":3024,"Una":3025,"val":3026,"Ã¼cha":3027,"Ġfie":3028,"tum":3029,"Ġhabl":3030,"Ġsalen":3031,"Ġwingkamu":3032,"epe":3033,"Ġacon":3034,"Ġtiyi":3035,"Ġcham":3036,"Ġcrec":3037,"ĠpresiÃ³n":3038,"ĠF":3039,"Ġlel":3040,"Ġtuy":3041,"Ã¼nmu":3042,"Ġelungi":3043,"nada":3044,"ĠlÃ¼":3045,"meki":3046,"Ġanfe":3047,"ĠkÃ¼tu":3048,"Ġkimne":3049,"Ġtute":3050,"Ġnewentu":3051,"Ġrumel":3052,"iz":3053,"lam":3054,"Ġluego":3055,"Ġkechu":3056,"Ġfante":3057,"Ġelun":3058,"ĠmÃ¼Ã±":3059,"peÃ±i":3060,"Ġrapi":3061,"Ġcaso":3062,"Ġcapa":3063,"Ġexist":3064,"Pital":3065,"MamÃ¼ll":3066,"bas":3067,"Ġ?.":3068,"Ġnari":3069,"Ġfell":3070,"aso":3071,"Ġnoti":3072,"pul":3073,"Ġkuifi":3074,"Ġngi":3075,"Ġiban":3076,"Ġnapor":3077,"eÃ±e":3078,"Ġperro":3079,"Ra":3080,"nentu":3081,"pelafuy":3082,"Ġum":3083,"Ġtos":3084,"Ġeli":3085,"Ġquedan":3086,"Ġyuyo":3087,"Ġllamaba":3088,"Ġdistintas":3089,"aymÃ¼n":3090,"llas":3091,"emew":3092,"Ġpeg":3093,"guÃ©":3094,"Ġtrafen":3095,"Tambien":3096,"Ġlig":3097,"tamente":3098,"ĠespÃŃritus":3099,"afimi":3100,"rin":3101,"alle":3102,"tray":3103,"ĠentrÃ³":3104,"oli":3105,"Ġedad":3106,"Ġamuli":3107,"ĠadÃ¼mu":3108,"lleg":3109,"ĠChau":3110,"Ġpepilu":3111,"Ġgusta":3112,"gran":3113,"Ġim":3114,"Ġtomo":3115,"Ġcr":3116,"tuan":3117,"ngeafuy":3118,"Ġconfi":3119,"Ġmachis":3120,"Ġrogativas":3121,"Veyta":3122,"Ġpipimi":3123,"Ġdulce":3124,"Epu":3125,"Ġtem":3126,"diÃ³":3127,"Ġparto":3128,"Ġtermino":3129,"Ġfavor":3130,"Ġmaligno":3131,"nolu":3132,"win":3133,"ĠademÃ¡s":3134,"Ġantigua":3135,"Ko":3136,"aquel":3137,"keneu":3138,"soy":3139,"ayiÃ±":3140,"awÃ¼l":3141,"Ġkachilla":3142,"imÃ¼n":3143,"kÃ¼r":3144,"kelayngÃ¼n":3145,"puede":3146,"Chumngechi":3147,"Ġaraucar":3148,"Donde":3149,"ves":3150,"Ġido":3151,"Ġahi":3152,"chumngelu":3153,"Ġconsejo":3154,"alvarino":3155,"xx":3156,"Ġpay":3157,"katrÃ¼":3158,"Ġllevar":3159,"Ġperder":3160,"Ġdejan":3161,"Wingka":3162,"Ġchileno":3163,"ĠSantiago":3164,"Ġfiebre":3165,"Ġlay":3166,"ormi":3167,"keiÃ±":3168,"Ġpieneu":3169,"puay":3170,"Ġfuri":3171,"Ġacab":3172,"Ġbebi":3173,"Ġmapuchemu":3174,"Nosotros":3175,"rbol":3176,"ulay":3177,"Ġmanda":3178,"Ġtoman":3179,"Ġnueva":3180,"Ġdeber":3181,"Ġpalabra":3182,"Ġnecesita":3183,"HabÃŃa":3184,"feÃ±":3185,"welan":3186,"ĠpingÃ¼n":3187,"Ġllellipu":3188,"Ġsuerte":3189,"mongel":3190,"pefuy":3191,"Ġtenian":3192,"chumuelu":3193,"nag":3194,"Era":3195,"TÃº":3196,"fewla":3197,"idad":3198,"ĠMachi":3199,"Ġ............":3200,"ĠpÃ¼l":3201,"Ġelungen":3202,"umechi":3203,"Ġsacan":3204,"ĠconocÃŃa":3205,"Ġencima":3206,"Chumuechi":3207,"TaÃ±i":3208,"ĠperdiÃ³":3209,"Ġinvierno":3210,"Ey":3211,"sale":3212,"uam":3213,"wki":3214,"enmu":3215,"taban":3216,"esas":3217,"tumu":3218,"Ġsiente":3219,"mongen":3220,"kelavuy":3221,"kelafun":3222,"mÃ¼lekefuy":3223,"tampoco":3224,"ĠrÃ¼pÃ¼":3225,"mÃ¼te":3226,"gÃ¼enza":3227,"Hasta":3228,"afi":3229,"cheyem":3230,"ĠfÃ¼n":3231,"tufiÃ±":3232,"ketuy":3233,"kaki":3234,"Ġkulli":3235,"Ġlli":3236,"Ġreg":3237,"Ġvece":3238,"Ġtru":3239,"ruga":3240,"Ġalguna":3241,"Ġescuela":3242,"rimero":3243,"Ġtrewa":3244,"ĠmÃ©dico":3245,"AquÃŃ":3246,"Fele":3247,"Ġfeme":3248,"tuafuy":3249,"Ġenvi":3250,"kefulu":3251,"lafuy":3252,"Ġkimfimi":3253,"keno":3254,"Ġllevo":3255,"pÃ¼ta":3256,"Ġmongele":3257,"ĠngÃ¼neluwÃ¼n":3258,"Ġencuentran":3259,"Ġdeben":3260,"Ġmomento":3261,"ena":3262,"Ġvari":3263,"pura":3264,"llin":3265,"Ġkure":3266,"Ġpeum":3267,"kÃ¼pa":3268,"Ġpichiche":3269,"Ġdecimos":3270,"CuÃ¡n":3271,"gracia":3272,"ademÃ¡s":3273,"ĠpÃ¼takeche":3274,"Mucho":3275,"Ġhierve":3276,"ea":3277,"newen":3278,"wlu":3279,"Ġare":3280,"ngÃ¼tram":3281,"unten":3282,"Ġnadie":3283,"Ġsano":3284,"nuestra":3285,"Ġcuidar":3286,"cciÃ³n":3287,"fue":3288,"Ġdo":3289,"ĠtamÃ¼n":3290,"Ġpuwi":3291,"Ġpike":3292,"Ġchoy":3293,"ĠallÃŃ":3294,"Ġchumle":3295,"Ġamane":3296,"tripay":3297,"Ġviejo":3298,"Ġpulmon":3299,"Ġfilu":3300,"Ġiyal":3301,"ere":3302,"Ġcho":3303,"vir":3304,"lidad":3305,"ĠsalÃŃa":3306,"Ġweku":3307,"Ten":3308,"ule":3309,"ĠÂ¡":3310,"Ġagar":3311,"Ġpiti":3312,"Ġchumal":3313,"Kimlafimi":3314,"allkÃ¼":3315,"Ġlimpi":3316,"dÃ³":3317,"igual":3318,"pell":3319,"anza":3320,"Ġkamapu":3321,"Ġray":3322,"tres":3323,"Ã©se":3324,"kafuy":3325,"Ġpatilla":3326,"fau":3327,"cara":3328,"Ġacaso":3329,"Ġharta":3330,"Ġpensar":3331,"Ġnariz":3332,".?":3333,"gente":3334,"sino":3335,"wal":3336,"Ġdentro":3337,"Ġaleg":3338,"Ġinaw":3339,"Enfermedad":3340,"Ġmedica":3341,"ĠsueÃ±os":3342,"Ġkan":3343,"Ġdie":3344,"Ġwekeche":3345,"Chew":3346,"kÃ¼nuy":3347,"pare":3348,"kuyvi":3349,"Ġlevantar":3350,"Des":3351,"rum":3352,"tera":3353,"Ġdenta":3354,"Ġnu":3355,"Ġfrio":3356,"ĠtÃ¼vi":3357,"Ġsalio":3358,"Ġniekefuy":3359,"ĠvergÃ¼enza":3360,"pÃ¼Ã±":3361,"Ġmisma":3362,"Ġcancer":3363,"Ġcalma":3364,"Ġenfermiza":3365,"fecto":3366,"afel":3367,"fÃ¼tra":3368,"mar":3369,"Ġaten":3370,"ĠvÃ¡":3371,"Ġpiu":3372,"Ġelel":3373,"ngepi":3374,"ĠkÃ¼tral":3375,"Ġenferme":3376,"Ġlleno":3377,"pÃ¼ram":3378,"ĠantÃ¼mu":3379,"Ġvolver":3380,"fantenmu":3381,"Ġadul":3382,"?,":3383,"faw":3384,"gÃºn":3385,"Ġpoy":3386,"Ġkell":3387,"Ġlavar":3388,"padre":3389,"Ġbra":3390,"comi":3391,"ĠcomÃŃa":3392,"Newen":3393,"Ġ........":3394,"embra":3395,"Ġhoy":3396,"arna":3397,"Ġdebi":3398,"llu":3399,"Ġpedi":3400,"Ġmiawi":3401,"Ġmapumew":3402,"ĠfemÃ¼n":3403,"kimlay":3404,"Ġcae":3405,"Ġalguno":3406,"Ġllegue":3407,"Ġpropia":3408,"Ġsobrepar":3409,"Ġfinada":3410,"Ġinmediato":3411,"ĠÃ±ukentu":3412,".'":3413,"fali":3414,"keli":3415,"mÃ³n":3416,"Ã¬":3417,"Ã¼ng":3418,"chal":3419,"erta":3420,"inta":3421,"Ġpienew":3422,"tuyiÃ±":3423,"niey":3424,"ĠyafÃ¼":3425,"Ġantiguas":3426,"Per":3427,"Ġwech":3428,"Ġcontra":3429,"Ġporte":3430,"Ġidi":3431,"ĠwekÃ¼fÃ¼":3432,"Ġenfermar":3433,"Ġactu":3434,"kelafiÃ±":3435,"Ġropa":3436,"Ġmongetuy":3437,"ĠÃ¼yÃ¼u":3438,"Ġvieja":3439,"emorra":3440,"bus":3441,"cri":3442,"zando":3443,"Ġdando":3444,"Ġace":3445,"aymu":3446,"quina":3447,"Ġilel":3448,"Ġyaf":3449,"Ġfuera":3450,"Aaa":3451,"Ġconversaciones":3452,"Ġfalta":3453,"Ġfalle":3454,"Ġdebes":3455,"Ġchadi":3456,"ĠpodrÃŃa":3457,"vemuechi":3458,"ĠÃ¡rbol":3459,"uki":3460,"Ġferm":3461,"tuto":3462,"tien":3463,"Ġkura":3464,"Ġpeuma":3465,"Ġpamu":3466,"Ġchilen":3467,"angÃ¼m":3468,"Ġvaca":3469,"Ġngati":3470,"ĠÃ±eÃ±e":3471,"Ġnomas":3472,"Ġlif":3473,"mÃ¼leki":3474,"Ġaconse":3475,"EymÃ¼n":3476,"rgent":3477,"Ġleli":3478,"ĠkÃ¼n":3479,"ĠpiÃ±":3480,"Ġpikefuy":3481,"Ġkimel":3482,"lia":3483,"ĠmÃ¼letuy":3484,"pichikeche":3485,"Ġcien":3486,"Ġwaka":3487,"Pitalmu":3488,"zÃ¡s":3489,"Ġney":3490,"Ġclas":3491,"Ġpuche":3492,"Ġmapumeu":3493,"Ġllellipun":3494,"kura":3495,"Ġopera":3496,"conoc":3497,"Ġdespue":3498,"Ġpoquito":3499,"Ġtomaba":3500,"despues":3501,"Ġcolocan":3502,"Ġhojas":3503,"Ġsemana":3504,"Fewla":3505,"fon":3506,"kalu":3507,"yÃ¼m":3508,"Ġospital":3509,"ĠÃ¼Ã±":3510,"Ġoye":3511,"ĠwÃ¼tr":3512,"deb":3513,"Ġngelu":3514,"Femllimay":3515,"Ġchumngelu":3516,"estamos":3517,"kÃ¼meke":3518,"ĠkimlafiÃ±":3519,"Ġaprender":3520,"ĠngÃ¼tam":3521,"dillera":3522,"Ġtiychi":3523,"Ġidioma":3524,"Feula":3525,"emi":3526,"tuwÃ¼n":3527,"Ġvam":3528,"Ġvengo":3529,"Ã¡bamos":3530,"cimiento":3531,"Ġgenechen":3532,"Ġviva":3533,"Ġreali":3534,"Ġill":3535,"Ġquema":3536,"Ġarro":3537,"Ġmedico":3538,"Ġtrekay":3539,"ĠHospital":3540,"Ġguar":3541,"Ġcaliente":3542,"kangelu":3543,"antos":3544,"erdo":3545,"Ġnas":3546,"Ġentran":3547,"Ġyer":3548,"pingeki":3549,"Ġchan":3550,"engua":3551,"Ġhaga":3552,"Ġcree":3553,"Ġhacemos":3554,"Ġfalintu":3555,"mÃ¼ten":3556,"ĠfawpÃ¼le":3557,"aiÃ±":3558,"ayo":3559,"arÃŃa":3560,"Ġmacha":3561,"ĠkuwÃ¼":3562,"olino":3563,"patu":3564,"pepi":3565,"Ġmejoro":3566,"antano":3567,"pichin":3568,"Ġpone":3569,"Ġamigos":3570,"ngillatu":3571,"pÃ¼n":3572,"esti":3573,"ĠnÃ¼":3574,"Ġwer":3575,"ngealu":3576,"lleno":3577,"ĠkutranÃ¼n":3578,"Ġpata":3579,"vis":3580,"Ġmejoran":3581,"Ġtrabaja":3582,"Ustedes":3583,"pewma":3584,"Ġaraucaria":3585,"Kon":3586,"Li":3587,"falu":3588,"lti":3589,"pÃ¡":3590,"Ã±intu":3591,"ĠcÃ¡ncer":3592,"ramos":3593,"Ġlong":3594,"ĠkÃ¼cha":3595,"Ġniyi":3596,"Ġhermanas":3597,"Ġove":3598,"Femki":3599,"mÃ¼lelu":3600,"aletuy":3601,"Ġllegan":3602,"Ġllegaron":3603,"Ġpelotu":3604,"ĠJuan":3605,"Ġactualidad":3606,"ada":3607,"paw":3608,"pÃ¼r":3609,"rÃŃan":3610,"Ġpele":3611,"Ġvali":3612,"Ã¼lu":3613,"umeu":3614,"Ġobe":3615,"Ġseria":3616,"Ġpari":3617,"Ãºcar":3618,"Ġtodavia":3619,"Ġtremi":3620,"ĠtremÃ¼n":3621,"Ġvenido":3622,"Pepi":3623,"gas":3624,"ju":3625,"vamos":3626,"erke":3627,"Ġfentre":3628,"Ġdias":3629,"Ġdifun":3630,"Ġmake":3631,"cieron":3632,"Ġvio":3633,"EstÃ¡":3634,"lano":3635,"kÃ¼la":3636,"Chumngelu":3637,"Ġestuve":3638,"Ġvuelve":3639,"Ġtratamiento":3640,"ĠmÃ¼Ã±etu":3641,"pÃ¼Ã±eÃ±":3642,"Af":3643,"itro":3644,"rÃŃ":3645,"Ġpalu":3646,"erkefuy":3647,"Ġdemasiado":3648,"Ġtosta":3649,"Ã©r":3650,"ungelu":3651,"longko":3652,"Esos":3653,"Ġtripan":3654,"Ġwef":3655,"estan":3656,"Ġlevanta":3657,"Ġmuere":3658,"emonia":3659,"Ini":3660,"fke":3661,"rando":3662,"Ġpol":3663,"Ġpren":3664,"Ġakun":3665,"Ġseca":3666,"todas":3667,"ĠalÃ¼":3668,"tÃ¼va":3669,"ĠhabrÃŃa":3670,"Ġdijiste":3671,"Ġrato":3672,"mange":3673,"awidamu":3674,"Ġcerca":3675,"Ġllegado":3676,"bueno":3677,"Ġhubiera":3678,"Ġproblema":3679,"cÃ³":3680,"cÃŃa":3681,"gio":3682,"ile":3683,"pli":3684,"Ġ..":3685,"Ġlengua":3686,"Ġhech":3687,"Ġvele":3688,"patun":3689,"Ġwed":3690,"vece":3691,"perimon":3692,"Ġvisitar":3693,"Monge":3694,"Tr":3695,"pelo":3696,"ton":3697,"Ġpantano":3698,"Ġpila":3699,"ĠwÃ¼Ã±":3700,"katun":3701,"lefuy":3702,".....":3703,"Ġpasan":3704,"Ġrog":3705,"Ġluku":3706,"Ġjuntan":3707,"TÃ¼fi":3708,"ĠanÃ¼mka":3709,"iendo":3710,"Ġdom":3711,"ĠrÃŃo":3712,"tichi":3713,"Ġbu":3714,"liyiÃ±":3715,"Ġtukul":3716,"ĠestÃ³":3717,"Ġacom":3718,"Kimlay":3719,"Ġmontul":3720,"mÃ¼lefuy":3721,"wetulan":3722,"Ġkimnolu":3723,"Ġmalignos":3724,"ĠGalvarino":3725,"emorragia":3726,"dÃŃ":3727,"ire":3728,"Ġ'":3729,"Ġuyu":3730,"Ġpey":3731,"Ġmoy":3732,"ĠpikefiÃ±":3733,"Ġmeke":3734,"Ġconten":3735,"segu":3736,"mago":3737,"Ã¼rki":3738,"ĠtrÃ¼f":3739,"Ġempacho":3740,"Pue":3741,"afulu":3742,"ete":3743,"foro":3744,"rÃ¡n":3745,"vos":3746,"estÃ¡n":3747,"medi":3748,"tillas":3749,"ustedes":3750,"Ġpitalmeu":3751,"ĠpÃ¼tokoy":3752,"Ġantiguo":3753,"Ġlimpia":3754,"nuestro":3755,"Buenos":3756,"Ġfinado":3757,"ĠsituaciÃ³n":3758,"Gra":3759,"SÃ³lo":3760,"cro":3761,"daron":3762,"nu":3763,"sali":3764,"vang":3765,"antiguamente":3766,"rakiduam":3767,"trÃ¼f":3768,"Ġellas":3769,"ĠkÃ¼pan":3770,"wekelay":3771,"kalay":3772,"Ġcorre":3773,"Ġjunto":3774,"Ġnegro":3775,"Ġsacaron":3776,"Hace":3777,"Sol":3778,"tel":3779,"tukelay":3780,"Ġturpu":3781,"Ġsalva":3782,"Ġkuyfike":3783,"pÃ¼toko":3784,"ĠwÃ¼nen":3785,"ĠmontaÃ±as":3786,"Ġalimentos":3787,"ĠestÃ³mago":3788,"Ġech":3789,"Ġmos":3790,"Ġdormi":3791,"Ġvale":3792,"Ġwew":3793,"Ġmitad":3794,"Ġinter":3795,"Ġpregunta":3796,"ĠpÃ¼take":3797,"ĠfÃ¼trake":3798,"Ġdeli":3799,"tualu":3800,"Ġpuliwen":3801,"muchas":3802,"Ã¼ley":3803,"llen":3804,"Ġmeu":3805,"Ġbar":3806,"Ġmuela":3807,"Ġinye":3808,"nielu":3809,"ĠpÃ¼trÃ¼":3810,"kayal":3811,"Ġsanti":3812,"Ġkuyda":3813,"Existe":3814,"Va":3815,"cuenta":3816,"ji":3817,"Ġpes":3818,"Ã¼wÃ¼n":3819,"chimu":3820,"tukulel":3821,"tico":3822,"Ġmapudungun":3823,"Ġmachitun":3824,"ĠestÃ©":3825,"Ġweke":3826,"entuku":3827,"Ġrupan":3828,"Ġhartas":3829,"ĠasÃ¼m":3830,"mangen":3831,"rena":3832,"kÃ¼leki":3833,"ĠArgent":3834,"Ġrecuper":3835,"Ġdentadura":3836,"FÃ¼":3837,"etuy":3838,"Ġbi":3839,"esenta":3840,"Ġhemos":3841,"Ġsepara":3842,"reci":3843,"Ġmuerto":3844,"biendo":3845,"ĠeÃ±um":3846,"Ġkichu":3847,"fÃ¼y":3848,"amuy":3849,"Ġwinkul":3850,"Ġnuestras":3851,"Ġkimlafimi":3852,"ĠLonquimay":3853,"Algunas":3854,"TodavÃŃa":3855,"Ġvacun":3856,"jeron":3857,"ĠD":3858,"ayÃ¼m":3859,"Ġfin":3860,"Ġhecha":3861,"trÃ©":3862,"tivo":3863,"ombre":3864,"Ġdiri":3865,"engelay":3866,"Ġnial":3867,"ning":3868,"ĠtrÃ¼":3869,"Ġdura":3870,"Ngewelay":3871,"Ġtripakey":3872,"Ġmongelay":3873,"Ġfelelay":3874,"ĠpikingÃ¼n":3875,"Ġenfermizo":3876,"Ġquieren":3877,"Ġpewmamu":3878,"Ġsacaba":3879,"Ġsucede":3880,"far":3881,"ĠB":3882,"Ġza":3883,"Ġsarna":3884,"tume":3885,"ĠkaÃ±pÃ¼le":3886,"katuy":3887,"llos":3888,"cida":3889,"Ġlef":3890,"estas":3891,"Ġgrano":3892,"Ġhacerlo":3893,"kÃ¼mey":3894,"dewma":3895,"ĠfaupÃ¼le":3896,"MÃ¼n":3897,"Pelo":3898,"pon":3899,"wecha":3900,"chil":3901,"mucha":3902,"aran":3903,"ĠwadkÃ¼m":3904,"Ġhacian":3905,"Ġhaya":3906,"sion":3907,"kÃ¼pal":3908,"convers":3909,"Ġenfermaba":3910,"Femlli":3911,"ĠcomÃŃan":3912,"Ġesposa":3913,"Ġlugares":3914,"acÃ¡":3915,"pasados":3916,"Kam":3917,"afiel":3918,"anu":3919,"Ġnay":3920,"chid":3921,"aweÃ±":3922,"Ġmil":3923,"vill":3924,"Ġtraw":3925,"Ġjab":3926,"Ġcada":3927,"Ġapli":3928,"ĠfÃ¼chakeche":3929,"Ġwariamu":3930,"Ġfermenta":3931,"Ina":3932,"vÃŃ":3933,"Ġĉĉĉĉ":3934,"Ġsomo":3935,"Ġhuevo":3936,"arlo":3937,"Ġele":3938,"Ġfeymew":3939,"quen":3940,"Ġpad":3941,"Ġkimal":3942,"unga":3943,"Ġllu":3944,"Ġcualquiera":3945,"keymÃ¼n":3946,"Ġllevan":3947,"Ġwedal":3948,"ĠkÃ¼mele":3949,"Ġmediku":3950,"umatismo":3951,"Ġchumuelu":3952,"ĠÃ©sta":3953,"Ġllover":3954,"????????":3955,"Ġideas":3956,"MÃ¼te":3957,"Ġbuey":3958,"Bien":3959,"kele":3960,"poy":3961,"pang":3962,"ukefuy":3963,"ĠÃº":3964,"chefe":3965,"awki":3966,"Ġkuram":3967,"ĠtÃ¼vey":3968,"umew":3969,"Ġkimpa":3970,"ermana":3971,"Ġwichu":3972,"paymi":3973,"ĠkoÃ±intu":3974,"ĠpewÃ¼":3975,"Debe":3976,"Ġfalin":3977,"oleo":3978,"Ġcompra":3979,"Ġwillen":3980,"solamente":3981,"Ġsobrena":3982,"exis":3983,"fes":3984,"Ġpos":3985,"elÃ¼":3986,"ello":3987,"Ġescon":3988,"Ġpingelu":3989,"piw":3990,"trar":3991,"Ġkimki":3992,"Ġoido":3993,"Ġmongeki":3994,"Ġsalv":3995,"Ġkimu":3996,"Ġelunge":3997,"nuestros":3998,"ĠÃ¼trÃ¼f":3999,"Ġitrokom":4000,"Ġsobrenatural":4001,"fÃ©":4002,"fre":4003,"kangi":4004,"will":4005,"ĠMa":4006,"ince":4007,"tido":4008,"dis":4009,"cid":4010,"Ġmirar":4011,"kÃ¼mi":4012,"Ġtrapi":4013,"pekan":4014,"wed":4015,"ĠmÃ¼lekevuy":4016,"Ġarto":4017,"kÃ¼letuy":4018,"Ġempe":4019,"ĠkÃ¼melkale":4020,"Ġrupaki":4021,"Ġantepasados":4022,"Ġfalil":4023,"ĠajÃŃ":4024,"Ar":4025,"Elu":4026,"Newe":4027,"fÃ¼r":4028,"entar":4029,"ayi":4030,"Ġlados":4031,"imo":4032,"Ġalo":4033,"Ġtome":4034,"Ġcreen":4035,"Qui":4036,"ĠseÃ±or":4037,"Ġchafo":4038,"ĠĠĠĠĠĠĠĠĠĠĠĠĠĠĠĠ":4039,"Ġcaminar":4040,"Algunos":4041,"Ġmenoko":4042,"estu":4043,"chengen":4044,"Ã±an":4045,"Ġatr":4046,"Ġfru":4047,"Ġrangi":4048,"Ġvaw":4049,"pipi":4050,"Ġkur":4051,"Ġsiembra":4052,"Ġfemngen":4053,"Ġsalvo":4054,"ĠenfermÃ³":4055,"Ġdescan":4056,"Ġadentro":4057,"Ġlofmeu":4058,"igen":4059,"ĠpequeÃ±os":4060,"Vemngechi":4061,"ĠazÃºcar":4062,"Las":4063,"bu":4064,"iÃ³":4065,"jÃ³":4066,"estar":4067,"ĠlÃ¼f":4068,"Ġhemorragia":4069,"Ġpiel":4070,"Ġdeum":4071,"eluw":4072,"Ġkutranka":4073,"Ġveo":4074,"Ġsopa":4075,"Ġacor":4076,"Ġcrece":4077,"tÃ¼famu":4078,"ĠmejorÃ©":4079,"kawÃ¼n":4080,"ĠkÃ¼melkal":4081,"Ġdistintos":4082,"Ġremolino":4083,"So":4084,"imi":4085,"ite":4086,"ĠI":4087,"Ġaunque":4088,"Ġcri":4089,"tuiÃ±":4090,"Ġnove":4091,"daba":4092,"Ġngu":4093,"Ġkimpan":4094,"Ġniel":4095,"Ġmalen":4096,"Ġverde":4097,"ĠpÃ¼Ã±u":4098,"caso":4099,"ĠpÃ¼tokol":4100,"Ġrespeto":4101,"pelafimi":4102,"Ġcapaz":4103,"Dew":4104,"Mar":4105,"cam":4106,"dung":4107,"rÃ³":4108,"ĠY":4109,"Ġcru":4110,"Ġhin":4111,"tungen":4112,"kepi":4113,"cheki":4114,"bir":4115,"tenÃŃan":4116,"ĠpÃ¼tr":4117,"Ġamuki":4118,"Ġperke":4119,"Nge":4120,"Ġcordillera":4121,"Ante":4122,"Ġcolocaron":4123,"Traf":4124,"Ġllad":4125,"ĠoraciÃ³n":4126,"Ġwingkul":4127,"Ġolvidado":4128,"Nie":4129,"pla":4130,"sus":4131,"wenu":4132,"Ġey":4133,"Ã¼mi":4134,"Ġfun":4135,"......":4136,"ĠmÃ¼ltrÃ¼n":4137,"Ġvecin":4138,"Ġevang":4139,"wingÃ¼n":4140,"KatrÃ¼":4141,"Ġnieki":4142,"garro":4143,"kevuyngÃ¼n":4144,"dencia":4145,"Ġceremonia":4146,"xi":4147,"Ġenten":4148,"Ġseis":4149,"Ġpeor":4150,"Ġmaychi":4151,"Cha":4152,"Femlay":4153,"Ġngekelafuy":4154,"Ġngewetulay":4155,"trÃ¼ng":4156,"ĠpÃ¼trake":4157,"Ġcultrun":4158,"Pewma":4159,"Ay":4160,"caba":4161,"gante":4162,"kas":4163,"memu":4164,"uli":4165,"zÃ³":4166,"anchi":4167,"unmu":4168,"dieron":4169,"Ġmater":4170,"piki":4171,"Ġconsi":4172,"ĠngÃ¼f":4173,"Ġkimngelay":4174,"tenemos":4175,"isa":4176,"ĠngÃ¼ne":4177,"ĠngÃ¼nen":4178,"Ġestuvi":4179,"Ġterminar":4180,"Ġdistinto":4181,"Ġamargo":4182,"Ġllow":4183,"Ġsufre":4184,"Ġdiez":4185,"Ġtostada":4186,"Uno":4187,"for":4188,"vulu":4189,"Ġsenta":4190,"Ġtema":4191,"tungeki":4192,"Ġvoro":4193,"Ġlafken":4194,"dilla":4195,"Ġkakelu":4196,"Ġpagar":4197,"Ġsupe":4198,"Ġmedicina":4199,"alechi":4200,"erkimi":4201,"adÃ¼m":4202,"ĠÃ¼yiw":4203,"ĠpulmÃ³n":4204,"Ġkimimi":4205,"Ġrupale":4206,"famngechi":4207,"Ella":4208,"Ser":4209,"aÃºn":4210,"vol":4211,"chantÃ¼":4212,"elel":4213,"Ġacer":4214,"Ġteng":4215,"rac":4216,"Ġsiento":4217,"ĠtrapÃ¼m":4218,"ĠlleguÃ©":4219,"Siempre":4220,"Ġnieve":4221,"Ġmejore":4222,"NgÃ¼":4223,"Ġcorri":4224,"sobre":4225,"ramente":4226,"ferentes":4227,"Ġeres":4228,"Ġinmediatamente":4229,"Ġnoticia":4230,"Tunten":4231,"aje":4232,"primero":4233,"uu":4234,"zos":4235,"tali":4236,"ern":4237,"Ġcama":4238,"Ġsecre":4239,"repente":4240,"Ġconsu":4241,"lafin":4242,"ĠngÃ¼m":4243,"cada":4244,"eligi":4245,"Ġkayu":4246,"Ġperde":4247,"Ġconversando":4248,"Ġprepar":4249,"Ġvisiones":4250,"ĠmiawÃ¼n":4251,"Bueno":4252,"Ġculpa":4253,"ĠmÃ©dica":4254,"Ġajen":4255,"Ġvivos":4256,"dÃ©":4257,"pchi":4258,"Ġaver":4259,"Ġtayi":4260,"embre":4261,"llfÃ¼Ã±":4262,"fingÃ¼n":4263,"pingey":4264,"Ġtira":4265,"traba":4266,"Ġbol":4267,"Ġbro":4268,"ocu":4269,"angiÃ±":4270,"amiento":4271,"kimay":4272,"kimfimi":4273,"Ġchumlen":4274,"Ġaccid":4275,"peri":4276,"Ġtremo":4277,"Ġbaja":4278,"Ġfolle":4279,"Ġfamechi":4280,"ĠterminÃ³":4281,"KÃ¼mey":4282,"Ġfellentu":4283,"Oh":4284,"cino":4285,"ĠÃ©se":4286,"Ã±m":4287,"ayem":4288,"kevi":4289,"cial":4290,"Ġtrar":4291,"Ġtrajo":4292,"palay":4293,"Ġpermi":4294,"Ġmedika":4295,"Ġpingefuy":4296,"angeki":4297,"ĠngÃ¼tramka":4298,"ael":4299,"kellu":4300,"oja":4301,"eras":4302,"Ġpukem":4303,"Ġfeyngi":4304,"Ġmata":4305,"Ġmaqui":4306,"kadi":4307,"ngewetulay":4308,"Ġlew":4309,"Ġange":4310,"Ġnguy":4311,"Ġrefri":4312,"Ġefecto":4313,"elita":4314,"kontu":4315,"Ġbajo":4316,"Ġtranqui":4317,"Ġjovenes":4318,"ĠkarÃ¼":4319,"Da":4320,"Fente":4321,"Ġ--------":4322,"Ġpelay":4323,"ĠdÃ³nde":4324,"Ġadi":4325,"Ġvel":4326,"abamos":4327,"pinge":4328,"Ġandu":4329,"Ġcura":4330,"Ġhijas":4331,"ĠmÃ¼lepi":4332,"Ġenfermado":4333,"Ġcreciendo":4334,"rampi":4335,"Ġlofmew":4336,"ĠrÃ¼ngÃ¼l":4337,"Ġdiagnostico":4338,"kisuam":4339,"ĠrÃ¡pido":4340,"Ġpierde":4341,"tellano":4342,"tey":4343,"enten":4344,"Ġtoro":4345,"unte":4346,"Ġeluke":4347,"sia":4348,"limi":4349,"Ġveyti":4350,"ĠmÃ¼lepu":4351,"Chumu":4352,"kall":4353,"ĠcafÃ©":4354,"ellimay":4355,"kutrani":4356,"Ġancianas":4357,"Ġayudan":4358,"Ġula":4359,"ĠmollfÃ¼n":4360,"Ġavanzando":4361,"Ġocurre":4362,"ĠexistÃŃa":4363,"Ġbrazo":4364,"ĠArgentina":4365,"Itrofill":4366,"lon":4367,"meno":4368,"pes":4369,"rÃ¡s":4370,"tom":4371,"vÃ¼":4372,"ĠAh":4373,"erio":4374,"Ġsino":4375,"Ġroma":4376,"ine":4377,"Ġenga":4378,"Ġdeu":4379,"kachu":4380,"ngekelafuy":4381,"trafentun":4382,"Ġgol":4383,"Ġkutrancheng":4384,"Ġtuki":4385,"Ġpastillas":4386,"veces":4387,"ĠkonÃ¼n":4388,"tripache":4389,"Ġvuelta":4390,"Ġchamal":4391,"RÃ¼f":4392,"Ġder":4393,"allu":4394,"keÃ±":4395,"kefuiÃ±":4396,"ambre":4397,"Ġfeyentun":4398,"Ġyi":4399,"Ġpehuen":4400,"Ġnielan":4401,"kÃ¼da":4402,"illo":4403,"Chu":4404,"Cheu":4405,"Ã¼rkey":4406,"Ġcreer":4407,"NgÃ¼l":4408,"Ġpewman":4409,"InchiÃ±":4410,"Ġvano":4411,"Ġestudio":4412,"Ã±mangi":4413,"Ġvomi":4414,"Ġclase":4415,"Folil":4416,"Wecha":4417,"fentren":4418,"Ġpenu":4419,"emen":4420,"Ġhela":4421,"tungey":4422,"tiy":4423,"tienes":4424,"Ġpile":4425,"Ġdices":4426,"Ġyew":4427,"imari":4428,"ĠpapÃ¡":4429,"Ġsupo":4430,"nielay":4431,"kefuymi":4432,"ĠpÃ¼cha":4433,"peafuy":4434,"Ġmongenmew":4435,"rupa":4436,"resi":4437,"Ġmongeli":4438,"Ġnombra":4439,"Ġcerros":4440,"Ġlofmu":4441,"Ġmongelen":4442,"Ġviejos":4443,"Ġdejado":4444,"Ġvista":4445,"Ġpataka":4446,"Ll":4447,"Mon":4448,"aki":4449,"meli":4450,"Ġngeki":4451,"trÃ¼r":4452,"miaw":4453,"bio":4454,"Ġseco":4455,"Ġweya":4456,"ĠkurÃ¼":4457,"Ġtia":4458,"Ġpafmu":4459,"kefuyiÃ±":4460,"Ġpichidomo":4461,"Ġacos":4462,"rupay":4463,"Ġorilla":4464,"Estaba":4465,"teria":4466,"Ġentreg":4467,"Ġconsejos":4468,"Ġremdio":4469,"Ġapare":4470,"Ġperdey":4471,"Dos":4472,"agu":4473,"pren":4474,"sar":4475,"Ġpeste":4476,"cham":4477,"emo":4478,"ueve":4479,"kefui":4480,"kafey":4481,"Ġkutu":4482,"rieron":4483,"tenia":4484,"ngimi":4485,"elaiÃ±":4486,"Ġtripalu":4487,"ĠestÃ¡s":4488,"kiduengÃ¼n":4489,"ĠkimÃ¼nmu":4490,"AlÃ¼n":4491,"tinu":4492,"Ġesposo":4493,"andaba":4494,"Ġquebrada":4495,"Sabe":4496,"Ġchilenos":4497,"DÃ³nde":4498,"dey":4499,"fante":4500,"ĠkÃ¼le":4501,"Ã±man":4502,"ngelafuy":4503,"ĠvÃ¼cha":4504,"Ġpecho":4505,"Ġllan":4506,"ĠmÃ¼chay":4507,"elavuy":4508,"Chi":4509,"chara":4510,"Ġngekelay":4511,"Ġcoleg":4512,"Ġmongekelay":4513,"KiÃ±ekemu":4514,"Ġdebemos":4515,"ĠLu":4516,"Ãĳi":4517,"Ġcuidado":4518,"Ġpiensa":4519,"conoce":4520,"PÃ¼toko":4521,"Ġkoyla":4522,"Solamente":4523,"Chumuelu":4524,"Ġcolegio":4525,"!,":4526,"As":4527,"RÃ¼":4528,"ega":4529,"kenge":4530,"pelan":4531,"wente":4532,"tunie":4533,"Ġreligi":4534,"inte":4535,"feymeu":4536,"amo":4537,"reke":4538,"trafen":4539,"ĠanÃ¼":4540,"Feyllemay":4541,"kÃ¼daw":4542,"tune":4543,"elafiÃ±":4544,"Ġmejoraba":4545,"fenew":4546,"treg":4547,"Ġquiera":4548,"Cono":4549,"habia":4550,"Ġwechake":4551,"vuelve":4552,"KÃ¼l":4553,"apÃ¼l":4554,"kole":4555,"zaba":4556,"Ġaire":4557,"ngelan":4558,"uetew":4559,"Ġpuu":4560,"aweni":4561,"leki":4562,"Ġinay":4563,"Ġllor":4564,"Ġoj":4565,"kÃ¼ki":4566,"ĠmÃ¼ngel":4567,"---":4568,"Ġchemi":4569,".........":4570,"Chemu":4571,"chau":4572,"Ġfeypienu":4573,"Ġkechi":4574,"Ġcielo":4575,"Ġgrave":4576,"kefiyiÃ±":4577,"Ġhabilidad":4578,"Ġganas":4579,"Femechi":4580,"Lle":4581,"Sa":4582,"cimos":4583,"feneu":4584,"volvi":4585,"Ġos":4586,"Ġabajo":4587,"tuk":4588,"tulan":4589,"asu":4590,"ĠdiÃ³":4591,"lleÃ±":4592,"leÃ±":4593,"ĠkÃ¼wÃ¼":4594,"seÃ±":4595,"fami":4596,"guien":4597,"Ġtrawa":4598,"ĠÃ±a":4599,"Ġdesa":4600,"Ġcatuto":4601,"brÃ³":4602,"ĠencontrÃ³":4603,"Ġcorazon":4604,"Puro":4605,"ĠpodÃŃa":4606,"Ġsembra":4607,"Ġhabian":4608,"ĠrÃ¡pidamente":4609,"Ġconfianza":4610,"Ġnovedad":4611,"Ġmun":4612,"ĠmawÃ¼n":4613,"Ġkew":4614,"Ġtain":4615,"inca":4616,"timu":4617,"tiÃ³":4618,"diendo":4619,"Ġmad":4620,"Ġindi":4621,"Ġojal":4622,"Ġporo":4623,"Ġrakisuam":4624,"ĠkompaÃ±":4625,"Ã¼rkÃ¼":4626,"Ġgranos":4627,"wÃ¼ne":4628,"TapÃ¼l":4629,"ĠkÃ¼palmemu":4630,"Ġakulu":4631,"Ġinaduam":4632,"ĠkÃ¼llay":4633,"Ġsufrir":4634,"chawall":4635,"Ġautor":4636,"vuiÃ±":4637,"Ġresfriado":4638,"ĠcrecÃŃ":4639,"Fu":4640,"lin":4641,"mÃ¼Ã±":4642,"pran":4643,"ĠAl":4644,"ĠTra":4645,"erken":4646,"erkey":4647,"tus":4648,"fia":4649,"pienu":4650,"lew":4651,"engel":4652,"Ġchiqui":4653,"liw":4654,"Ġhablo":4655,"Ġchempi":4656,"..........":4657,"Ġamutuy":4658,"Ġcastellano":4659,"Ġconverso":4660,"Ġsanar":4661,"ĠquizÃ¡s":4662,"Ġapoy":4663,"Ġcalm":4664,"Ġufi":4665,"Ġpulku":4666,"ĠsueÃ±a":4667,"Ġsuegra":4668,"MÃ¼lefuy":4669,"Ġcuidad":4670,"wedake":4671,"ĠvolviÃ³":4672,"lamngen":4673,"Ġsobreparto":4674,"ĠinyecciÃ³n":4675,"ico":4676,"tella":4677,"vino":4678,"vÃ©s":4679,"yam":4680,"ĠNo":4681,"Ġuma":4682,"ĠAn":4683,"ani":4684,"Ġter":4685,"emia":4686,"awal":4687,"elayu":4688,"Ġmirando":4689,"umel":4690,"Ġsuele":4691,"Ġil":4692,"vio":4693,"caron":4694,"kimlan":4695,"Ġkimnien":4696,"Ġamarra":4697,"famuechi":4698,"ĠTemuko":4699,"Ġyerba":4700,"distin":4701,"WÃ¼n":4702,"afin":4703,"gre":4704,"Ġ-":4705,"enc":4706,"Ġlar":4707,"olor":4708,"Ġsido":4709,"Ġcuanto":4710,"Ġviendo":4711,"Ġviven":4712,"ĠpÃ¼trÃ¼n":4713,"panu":4714,"Ġparti":4715,"Ġje":4716,"pÃ¼trÃ¼":4717,"Ġconocemos":4718,"Ġngillatuy":4719,"Ġquiero":4720,"ĠkÃ¼palme":4721,"Ġkaru":4722,"sanu":4723,"Ġcontagi":4724,"harto":4725,"Ġacuerdo":4726,"Ġpengeafuy":4727,"Ġnalka":4728,"Ġimpor":4729,"farinu":4730,"afuiÃ±":4731,"person":4732,"rÃŃas":4733,"wem":4734,"Ġrue":4735,"trung":4736,"Ġelung":4737,"pual":4738,"Ġyenge":4739,"Ġchill":4740,"vimi":4741,"Ġhablan":4742,"kayu":4743,"ĠallfeÃ±":4744,"Ġmanel":4745,"kelafimi":4746,"pÃ¼to":4747,"perki":4748,"Ġore":4749,"ĠpÃ¼tokon":4750,"ĠkÃ¼melka":4751,"Ġtunten":4752,"Ġsufriendo":4753,"AllkÃ¼":4754,"Ġempachu":4755,"Ġhubiese":4756,"Ġcrey":4757,"Ġrayen":4758,"Ġobede":4759,"don":4760,"jaba":4761,"sin":4762,"ĠÃ¼l":4763,"Ġpemay":4764,"ĠpÃ¼la":4765,"chenta":4766,"emal":4767,"ÃŃn":4768,"inas":4769,"inchin":4770,"doctor":4771,"kepelay":4772,"abe":4773,"Ġbos":4774,"kuÃ±i":4775,"Ġreuni":4776,"layngÃ¼n":4777,"dose":4778,"illatun":4779,"Ġmedicin":4780,"Ġllegaba":4781,"Pul":4782,"Ġcomunidades":4783,"Ġvaso":4784,"Ġmensa":4785,"Ã±mange":4786,"ĠkalÃ¼l":4787,"Ġpienso":4788,"Ġrefres":4789,"KÃ¼la":4790,"Soy":4791,"Tengo":4792,"taro":4793,"eyngÃ¼n":4794,"Ã±maw":4795,"Ġdue":4796,"ĠdÃ©":4797,"ĠfÃ¼l":4798,"ĠriÃ±":4799,"Ġalum":4800,"Ġreumatismo":4801,"Ġpuedes":4802,"kÃ¼nÃ¼":4803,"Ġtripantumu":4804,"ĠtremÃ¼m":4805,"Ġrukamew":4806,"Ġmenor":4807,"serÃ¡":4808,"Ġsabiduria":4809,"Ġrespeta":4810,"Ġweni":4811,"AllÃ¡":4812,"ĠkutrankawÃ¼n":4813,"Ġobje":4814,"trafentu":4815,"Ġumaw":4816,"ĠjabÃ³n":4817,"Ver":4818,"itan":4819,"mari":4820,"tÃ¼n":4821,"ĠÃ¼na":4822,"Ġpr":4823,"ĠmÃ¡":4824,"Ġakor":4825,"Ġnan":4826,"chipÃ¼le":4827,"tuwe":4828,"mul":4829,"Ġrew":4830,"dado":4831,"uyem":4832,"Ġpill":4833,"amar":4834,"kiyiÃ±":4835,"emedios":4836,"ĠkÃ¼ch":4837,"laiÃ±":4838,"Ġunos":4839,"tenta":4840,"Ġvill":4841,"Ġsupi":4842,"ĠmÃ¼leal":4843,"Ġenfermaban":4844,"kÃ¼lelay":4845,"Ġpensando":4846,"Ġcamina":4847,"Ġlongkomu":4848,"Ġviej":4849,"Ġlimpio":4850,"decÃŃa":4851,"omingo":4852,"akuy":4853,"Ġpeli":4854,"ÃŃcula":4855,"Ġcum":4856,"tukefi":4857,"inmu":4858,"inar":4859,"Ġquedo":4860,"Ġtio":4861,"Ġano":4862,"Ġngellipu":4863,"Ġkimfuy":4864,"Ġchemmu":4865,"Ġsalido":4866,"enulu":4867,"Ġentrado":4868,"Ġpingeken":4869,"habÃŃan":4870,"Ġguagu":4871,"Ġrespetaba":4872,"Ġperdido":4873,"Ġexam":4874,"Ġagradezco":4875,"Ġconosco":4876,"ĠsentÃŃ":4877,"Harto":4878,"Ġpariente":4879,"Ġlluvia":4880,"agua":4881,"Ġpoc":4882,"ĠmÃ¼n":4883,"Ġapu":4884,"tror":4885,"arenta":4886,"Ġelaweni":4887,"leza":4888,"Ġpega":4889,"Ġgana":4890,"Ġngoy":4891,"kefuymÃ¼n":4892,"Ġtrajeron":4893,"veyti":4894,"Ġyag":4895,"Ġmanos":4896,"Ã¼yu":4897,"ario":4898,"Ġcortar":4899,"Ġkampumu":4900,"Ġvantenmu":4901,"Ġprodu":4902,"Ġpropio":4903,"Ġentrega":4904,".............":4905,"Estoy":4906,"ĠatrÃ¡s":4907,"%.":4908,"Cre":4909,"Hermano":4910,"ben":4911,"teli":4912,"vamente":4913,"zc":4914,"ĠÃ¼ll":4915,"Ġpoleo":4916,"Ġden":4917,"Ġtameu":4918,"Ġtoco":4919,"ÃŃs":4920,"Ġvewla":4921,"feyngi":4922,"Ġyen":4923,"Ġgo":4924,"Ġpais":4925,"Ġrehue":4926,"EstÃ¡n":4927,"ĠtrawÃ¼":4928,"ĠsalÃŃ":4929,"Ġamual":4930,"ĠÃ±ami":4931,"ĠcompaÃ±":4932,"Ġmongetuki":4933,"ĠpÃ¼tokongi":4934,"ĠayÃ¼":4935,"wingkamu":4936,"KÃ¼mel":4937,"sola":4938,"ĠfÃ¼ren":4939,"Ġaparece":4940,"Ġcontento":4941,"Hola":4942,"Tre":4943,"cali":4944,"fentre":4945,"hoy":4946,"jun":4947,"kang":4948,"kemeu":4949,"eyiÃ±":4950,"erÃ³n":4951,"ĠkelÃ¼":4952,"Ġale":4953,"askÃ¼m":4954,"kimu":4955,"kakelu":4956,"Ġkuse":4957,"Ġchang":4958,"deuma":4959,"Ġgar":4960,"Ġkutranmew":4961,"Ġsiguen":4962,"Ġtrari":4963,"wekelan":4964,"ĠenfermÃ©":4965,"Ġdesde":4966,"ĠngÃ¼newÃ¼n":4967,"Ġpingetuy":4968,"Ã¼Ã±ma":4969,"Ġtrekal":4970,"Ġkimlafin":4971,"Ġcompon":4972,"TÃ¼fachi":4973,"ĠquerÃŃa":4974,"Ġtutey":4975,"winka":4976,"CuÃ¡ndo":4977,"Ġvecinos":4978,"Sale":4979,"lnge":4980,"ojal":4981,"are":4982,"tio":4983,"tima":4984,"feyentu":4985,"Ġquedar":4986,"Ġtipos":4987,"Ġpater":4988,"Ġniymi":4989,"Ġsube":4990,"lokiÃ±":4991,"weke":4992,"femki":4993,"Ġcreencia":4994,"chumal":4995,"Ġtomando":4996,"ĠNgÃ¼nechenmu":4997,"Ġentraba":4998,"Ġorigen":4999,"tulelu":5000,"Ġtunte":5001,"Ġpresion":5002,"Ġcalienta":5003,"Ġfenten":5004,"Ġarregla":5005,"Ġnalca":5006,"Perimon":5007,"FÃ¼ta":5008,"Ellos":5009,"Pen":5010,"Pal":5011,"Son":5012,"WÃ¼":5013,"iza":5014,"nor":5015,"eros":5016,"ĠtapÃ¼le":5017,"Ġespe":5018,"Ġnentuy":5019,"alay":5020,"ĠvÃ©":5021,"Ġpituy":5022,"Ġpifin":5023,"Ġpuesto":5024,".......":5025,"Ġboca":5026,"Ġkutranlu":5027,"Ġkimpal":5028,"Ġllora":5029,"Ġocho":5030,"Ġreun":5031,"Ġig":5032,"vida":5033,"Ġfuimos":5034,"wing":5035,"wimi":5036,"ĠchumÃ¼l":5037,"Dio":5038,"Ġsantu":5039,"Ġelueyu":5040,"gracias":5041,"dentro":5042,"Ġtreinta":5043,"Pekan":5044,"ĠSan":5045,"Ġpepil":5046,"Ġterminaron":5047,"urel":5048,"Ġhabido":5049,"Ãľy":5050,"ĠlelfÃ¼n":5051,"Marimari":5052,"Casi":5053,"bran":5054,"lkan":5055,"mamÃ¼ll":5056,"eyi":5057,"ngeli":5058,"Ġnotu":5059,"diente":5060,"puw":5061,"kame":5062,"Ġyel":5063,"Ġtibia":5064,"Ġang":5065,"ĠmÃ¼lele":5066,"Ġngelafuy":5067,"Ġinar":5068,"ĠllÃ¼":5069,"Ġcual":5070,"Ġtrae":5071,"Ġhualle":5072,"Ġcosecha":5073,"Ġfeytachi":5074,"pale":5075,"Ġpena":5076,"kimlafimi":5077,"Ngen":5078,"Ġrakiduammu":5079,"Lafken":5080,"Ġafkadi":5081,"ĠllevÃ³":5082,"Buena":5083,"creo":5084,"Ġmueren":5085,"ĠsoÃ±Ã©":5086,"comida":5087,"Ġoveja":5088,"familia":5089,"He":5090,"hombre":5091,"jaron":5092,"rke":5093,"chÃ¼":5094,"alintu":5095,"keviÃ±":5096,"ĠpiviÃ±":5097,"Ġeluni":5098,"bil":5099,"bian":5100,"ĠfeypÃ¼le":5101,"sieron":5102,"elafun":5103,"...........":5104,"ĠtÃ¼fapÃ¼le":5105,"ngÃ¼nechen":5106,"ahi":5107,"Ġrali":5108,"eÃ±mu":5109,"Ġkochi":5110,"Ġrodilla":5111,"Ġalivia":5112,"dÃŃa":5113,"tem":5114,"Ġaun":5115,"Ġapre":5116,"ayal":5117,"ayin":5118,"Ġestru":5119,"Ġescri":5120,"Ã©li":5121,"Ġelungey":5122,"ĠseÃ±a":5123,"Ġmeta":5124,"eluam":5125,"Ġtie":5126,"Ġpeu":5127,"Ġpeken":5128,"cualquiera":5129,"Ġtriwe":5130,"...?":5131,"Ã±ochi":5132,"fuli":5133,"Ġkofke":5134,"Ġduro":5135,"ĠtomÃ³":5136,"Ġexisti":5137,"Ġconversado":5138,"Ġrukameu":5139,"mala":5140,"Ġcortadura":5141,"ctoria":5142,"Ġkunu":5143,"Ġidea":5144,"prano":5145,"Kuy":5146,"edad":5147,"gr":5148,"new":5149,"ĠPe":5150,"esu":5151,"ĠpÃ¡":5152,"ĠkÃ¼ll":5153,"Ġdon":5154,"tuvi":5155,"ales":5156,"Ġlaurel":5157,"Ġpirki":5158,"ĠwiÃ±o":5159,"engÃ¼m":5160,"kull":5161,"Ġcuantos":5162,"keymu":5163,"ĠpÃ¼trem":5164,"Ġbuscan":5165,"Ġlipang":5166,"ĠquiÃ©n":5167,"Ġconversacion":5168,"Ġelungeki":5169,"Ġandaban":5170,"ador":5171,"Tati":5172,"Ġvisita":5173,"Ġestuvo":5174,"Ġtranca":5175,"Ġenoja":5176,"Ġmamadera":5177,"Ġenvidia":5178,"ĠwekufÃ¼":5179,"estiÃ³n":5180,"ltimo":5181,"Ġzapa":5182,"Rumel":5183,"Waw":5184,"cÃŃan":5185,"ganta":5186,"iba":5187,"jero":5188,"lmeu":5189,"Ġachawall":5190,"Ġcoc":5191,"tukefiÃ±":5192,"arro":5193,"Ã©ramos":5194,"Ġdiente":5195,"Ġmezc":5196,"Ġvecino":5197,"Ġwitray":5198,"ĠweÃ±":5199,"femlay":5200,"Ġtrol":5201,"Ġnietuy":5202,"kÃ¼nungi":5203,"kunuy":5204,"Ġbusco":5205,"Ġmejorado":5206,"Ġtripache":5207,"tripantu":5208,"mangeki":5209,"Ġandado":5210,"Ġapen":5211,"ĠvenÃŃa":5212,"Ġjuntar":5213,"Ġsemilla":5214,"ĠningÃºn":5215,"Ġbotella":5216,"Ġcontagia":5217,"DespuÃ©s":5218,"tiende":5219,"ĠtrÃ¼fon":5220,"Po":5221,"Santi":5222,"idas":5223,"lmi":5224,"sta":5225,"vam":5226,"zu":5227,"chengi":5228,"Ġley":5229,"Ġfres":5230,"muchos":5231,"tron":5232,"ardo":5233,"Ġsew":5234,"Ġloco":5235,"deu":5236,"quella":5237,"pamu":5238,"Ġpag":5239,"kumu":5240,"Ġrevi":5241,"Ġsubi":5242,"ĠchemÃ¼n":5243,"kelayiÃ±":5244,"Ġpingiki":5245,"kimn":5246,"ĠniÃ±as":5247,"chemmu":5248,"Ġartiro":5249,"Ġcomiendo":5250,"keluam":5251,"Ġmongeley":5252,"Ġquiso":5253,"cante":5254,"Ġpregunto":5255,"ĠkÃ¼pali":5256,"ĠkÃ¼melkali":5257,"kerkey":5258,"Ġpodri":5259,"..............":5260,"Ġkimnen":5261,"Ġcincuenta":5262,"Ġescuchar":5263,"Ġusa":5264,"Ġkintuy":5265,"altumay":5266,"Ġchancho":5267,"pÃ¼rÃ¼m":5268,"ĠacompaÃ±":5269,"ag":5270,"avun":5271,"clu":5272,"fus":5273,"imiento":5274,"ple":5275,"sÃ©":5276,"vimos":5277,"zana":5278,"ĠÃ¼n":5279,"anelo":5280,"Ġfis":5281,"almu":5282,"Ġvaya":5283,"tiva":5284,"amÃ¼n":5285,"amngen":5286,"Ġfeypin":5287,"Ġwelngi":5288,"letuy":5289,"Ġngo":5290,"Ġpapa":5291,"umeke":5292,"Ġsiete":5293,"Ġoja":5294,"duras":5295,"kÃ¼fu":5296,"Ġpasaron":5297,"ĠtravÃ©s":5298,"Chaw":5299,"Ġverruga":5300,"Ġmasaje":5301,"Ġtomado":5302,"ellas":5303,"Ġasus":5304,"ĠestarÃ¡":5305,"Ġsaliendo":5306,"buenos":5307,"Ġchilko":5308,"Ġtoca":5309,"hijo":5310,"Ġazul":5311,"ĠexistÃŃan":5312,"grandes":5313,"Ġagarra":5314,"Ġdifunta":5315,"MÃ¼nalechi":5316,"Ġcorriendo":5317,"Em":5318,"bos":5319,"kemew":5320,"lka":5321,"lelay":5322,"oh":5323,"sera":5324,"erza":5325,"ĠkewÃ¼n":5326,"Ġhue":5327,"tukuy":5328,"trÃ¼y":5329,"inan":5330,"Ġpiren":5331,"awlu":5332,"pikefuy":5333,"pakey":5334,"ĠestarÃŃa":5335,"Ġinfec":5336,"Ġniew":5337,"nieyu":5338,"Ġfemken":5339,"chake":5340,"ĠallfÃ¼":5341,"kelaiÃ±":5342,"Ã±oso":5343,"Ġcaci":5344,"Ġadkintu":5345,"Ġvoye":5346,"kutranki":5347,"Ġpreocu":5348,"Iney":5349,"Ġcolocar":5350,"Ġcigarro":5351,"wÃ¼Ã±o":5352,"Ġfochid":5353,"Ã¼trÃ¼m":5354,"pelaymi":5355,"Ġwitram":5356,"Ġpodemos":5357,"ĠChol":5358,"Ġoperaron":5359,"Ġagradecido":5360,"Ġkultrun":5361,"itrokom":5362,"Ġprenda":5363,"Puede":5364,"ninguna":5365,"xili":5366,"Fau":5367,"apen":5368,"cÃŃ":5369,"cto":5370,"dÃ³nde":5371,"gÃŃa":5372,"elmu":5373,"Ġtay":5374,"ayay":5375,"ĠtÃŃ":5376,"Ġesper":5377,"tukul":5378,"alen":5379,"aley":5380,"Ġpude":5381,"une":5382,"Ġello":5383,"reda":5384,"Feyngi":5385,"Ġmicro":5386,"Ġaltiro":5387,"Ġojos":5388,"Ġtuw":5389,"Ġtukuy":5390,"Ġtraer":5391,"Ġchemay":5392,"kimni":5393,"engetuy":5394,"despue":5395,"allero":5396,"niefuy":5397,"Ġvend":5398,"Ġnegra":5399,"ĠCo":5400,"Ġtrana":5401,"ewenche":5402,"ĠLau":5403,"Ġllevaba":5404,"...............":5405,"Ġponen":5406,"Ġkutrankawki":5407,"Ãĳan":5408,"Ġchuchimu":5409,"llegÃ³":5410,"Ġpedir":5411,"Ġfruto":5412,"Trafentu":5413,"Ġsecreto":5414,"Ġconsumi":5415,"PÃ¼Ã±":5416,"Temu":5417,"fall":5418,"gon":5419,"Ġume":5420,"ches":5421,"ngeymi":5422,"Ġsesenta":5423,"Ġhambre":5424,"mujer":5425,"trÃ¼m":5426,"mimi":5427,"Ġpilu":5428,"diferentes":5429,"Ġmatu":5430,"reta":5431,"fimÃ¼n":5432,"pie":5433,"Ġmurio":5434,"tener":5435,"tuyu":5436,"long":5437,"Ġing":5438,"Ġikefuy":5439,"tunten":5440,"illemay":5441,"kelaymÃ¼n":5442,"ĠmÃ¼leay":5443,"ĠmÃ¼levuy":5444,"Ġamuken":5445,"Ġverti":5446,"Ġverano":5447,"Ã±ada":5448,"Ġhacerse":5449,"Ġasu":5450,"torio":5451,"Ġcanti":5452,"mapumu":5453,"Ġnegati":5454,"tamina":5455,"alguno":5456,"Pura":5457,"Ġtukungeki":5458,"Ġalimenta":5459,"Pasa":5460,"AdÃ¼m":5461,"Ġamanecer":5462,"Ġaceite":5463,"ĠpiÃ±ones":5464,"Ġneyen":5465,"Ã©rf":5466,"perimontun":5467,"plata":5468,"Ġestuviera":5469,"Ġjefe":5470,"Ġalumbre":5471,"Mawidamu":5472,"Wa":5473,"aqui":5474,"col":5475,"ferm":5476,"hpu":5477,"jen":5478,"lngi":5479,"pro":5480,"tÃŃa":5481,"temu":5482,"Ġ!":5483,"Ġmenta":5484,"eltu":5485,"ayan":5486,"Ġtemu":5487,"Ġrewe":5488,"Ġquede":5489,"redad":5490,"elumu":5491,"ĠtipÃ¼le":5492,"Ġchumechi":5493,"lado":5494,"Ġkutrankau":5495,"engÃ¼ll":5496,"Ġinal":5497,"Ġnii":5498,"kuÃ±":5499,"Ġalma":5500,"kÃ¼cha":5501,"ĠtrawÃ¼l":5502,"Ġrakidu":5503,"Ġamulay":5504,"fuÃ±":5505,"Ġkonkelu":5506,"ĠiÃ±i":5507,"Ġconversamos":5508,"eneno":5509,"Ġconocieron":5510,"Ġcolor":5511,"mangelay":5512,"Ġluz":5513,"PeÃ±i":5514,"Ġerke":5515,"Ġvuelto":5516,"Ġnaturales":5517,"ĠkÃ¼yenmu":5518,"Ġblanca":5519,"erupuy":5520,"Ġafir":5521,"Ġsalud":5522,"Ġvarios":5523,"Ġacep":5524,"Gracias":5525,"Ġoreja":5526,").":5527,"Hi":5528,"Tres":5529,"delay":5530,"ĠCu":5531,"Ġecha":5532,"Ġpino":5533,"Ġpron":5534,"ayngÃ¼n":5535,"Ġcay":5536,"Ġfay":5537,"Ġpur":5538,"Ġpir":5539,"feyngepi":5540,"kiyu":5541,"Ġwey":5542,"Ġga":5543,"Ġiney":5544,"Ġniewelay":5545,"kula":5546,"fachi":5547,"Ġtukungi":5548,"ĠkiÃ±ekentu":5549,"ĠkiÃ±epchi":5550,"Ġveinte":5551,"Ġconocia":5552,"ĠniÃ±ita":5553,"kelafin":5554,"Ġcrecer":5555,"tanto":5556,"Ġduami":5557,"Ġdespre":5558,"amul":5559,"Ġcaballero":5560,"kuna":5561,"Ġdejaba":5562,"Ġpalki":5563,"Ġrecibi":5564,"Ġpingekefuy":5565,"Ġjuntos":5566,"Ġprofes":5567,"Ġpinmu":5568,"ĠpequeÃ±as":5569,"Ġngillatunmu":5570,"Ġolvido":5571,"ĠlÃ¼pÃ¼m":5572,"Ġacostum":5573,"Fo":5574,"Man":5575,"jando":5576,"anÃ¼m":5577,"Ġkasi":5578,"Ġatend":5579,"ono":5580,"tueyu":5581,"Ġputoko":5582,"chekelu":5583,"Ġeluenu":5584,"puki":5585,"putuy":5586,"file":5587,"cil":5588,"pile":5589,"Ġune":5590,"Ġalguien":5591,"kenew":5592,"cuatro":5593,"elafimi":5594,"peta":5595,"Ġtriste":5596,"Ġras":5597,"Ġamuley":5598,"ĠkÃ¼merki":5599,"Ġconversaba":5600,"chumle":5601,"desde":5602,"felen":5603,"kutranmu":5604,"Ġmedia":5605,"Ġlitro":5606,"Ġliwen":5607,"kuyfike":5608,"Ġrecibe":5609,"Ġabuel":5610,"Ġescucho":5611,"Ġtreka":5612,"Ġmarido":5613,"ĠfillantÃ¼":5614,"Ġsabian":5615,"Ġlevanto":5616,"Ġperdiendo":5617,"Ġkintun":5618,"Ġterminado":5619,"filmi":5620,"kenofulu":5621,"ĠalegrÃŃa":5622,"ĠÃ¼Ã±Ã¼m":5623,"Ġboldo":5624,"Ġautoridad":5625,"Ġobjetivo":5626,"Ġgarganta":5627,"Ġcantidad":5628,"Hu":5629,"Otra":5630,"fr":5631,"kengi":5632,"liÃ±":5633,"sto":5634,"tamÃ¼n":5635,"escu":5636,"chey":5637,"Ġluna":5638,"elnge":5639,"Ġkali":5640,"Ġatra":5641,"Ġafec":5642,"Ġnaw":5643,"ontu":5644,"titis":5645,"llan":5646,"cito":5647,"Ġpeka":5648,"Ġmurieron":5649,"sea":5650,"Ġincha":5651,"Ġvientre":5652,"Ġiya":5653,"femngen":5654,"ĠkÃ¼meli":5655,"Ġcasti":5656,"Ġacaba":5657,"Ġconocido":5658,"engeal":5659,"Ġmontes":5660,"Cualquier":5661,"kÃ¼leken":5662,"Ġdewmay":5663,"Mapumu":5664,"Ġtrance":5665,"Ġheridas":5666,"Ġkimlaymi":5667,"ĠfachantÃ¼":5668,"Ġfide":5669,"tripaki":5670,"Ġvolun":5671,"Ġvaloran":5672,"ĠtendrÃŃa":5673,"chunte":5674,"Ngillatun":5675,"uchefe":5676,"Rakiduam":5677,"Ġhincha":5678,"xiliar":5679,"Afi":5680,"Win":5681,"aun":5682,"lim":5683,"mawida":5684,"wemu":5685,"Ġlin":5686,"Ġdallu":5687,"Ġavi":5688,"Ġnuke":5689,"ĠrangiÃ±":5690,"dios":5691,"Ġmaquina":5692,"fiyu":5693,"Ġbur":5694,"Ġkutrankey":5695,"Ġngellipun":5696,"tenian":5697,"siÃ³n":5698,"Ġopitalmu":5699,"viÃ³":5700,"veypi":5701,"Ġequi":5702,"weche":5703,"Ġradio":5704,"Ġkonkey":5705,"Ġkontrol":5706,"ĠniÃ±i":5707,"Ġnieta":5708,"Ġverguen":5709,"ellentu":5710,"Ngenechen":5711,"Ġcoloco":5712,"Ġtripatuy":5713,"Ġexistir":5714,"ĠapÃ¼m":5715,"Ġkeche":5716,"pens":5717,"Ġplato":5718,"Ġpikimi":5719,"Ġnuevas":5720,"Ġherido":5721,"ĠvesÃŃcula":5722,"ĠwÃ¼li":5723,"MÃ¼leki":5724,"Ġhierbas":5725,"Ġcontrola":5726,"Ġpewenche":5727,"Ġmenokomu":5728,"Victoria":5729,"Ġnoticias":5730,"ĠpeglleÃ±":5731,"Ġmachaca":5732,"rampiÃ³n":5733,"tiychi":5734,"Ġdesapare":5735,"Ġpocos":5736,"Ġalegra":5737,"feme":5738,"gal":5739,"mall":5740,"zÃ³n":5741,"ĠPi":5742,"Ġpeme":5743,"ĠaÃ±":5744,"Ġatreg":5745,"onkimay":5746,"ĠpuwÃ¼l":5747,"tiendo":5748,"feypÃ¼le":5749,"Ġsepa":5750,"lef":5751,"Ġremediar":5752,"Ġkimngeki":5753,"sigue":5754,"ĠtuwÃ¼n":5755,"pod":5756,"Ġenfermarse":5757,"estaban":5758,"Ġdescu":5759,"Ġmejoraban":5760,"KimlafiÃ±":5761,"suf":5762,"Ġemb":5763,"Ġcarreta":5764,"Ġpostamu":5765,"Ġrupali":5766,"lesia":5767,"chengelu":5768,"ĠtendrÃ¡":5769,"Ġsiguiendo":5770,"Ġadultos":5771,"Ġtrarintu":5772,"ĠpÃ¡jar":5773,"redadera":5774,"New":5775,"Nunca":5776,"Veley":5777,"ger":5778,"mam":5779,"mawidamu":5780,"nal":5781,"Ġceni":5782,"Ġveli":5783,"Ġnota":5784,"kechu":5785,"kefenu":5786,"kichu":5787,"dije":5788,"kakefuy":5789,"kafun":5790,"Ġkuku":5791,"Ġgreda":5792,"Ġkimkelay":5793,"famechi":5794,"Ġvidas":5795,"quido":5796,"illas":5797,"ĠtenÃŃamos":5798,"Ġwekun":5799,"ĠmÃ¼lekelay":5800,"Ġraro":5801,"Ġcreci":5802,"ĠconociÃ³":5803,"ĠconocÃŃan":5804,"Ġcaer":5805,"Ġadelan":5806,"konki":5807,"KimÃ¼n":5808,"ĉĉĉ":5809,"Ġfamiliar":5810,"Ġkampu":5811,"Ġtanta":5812,"Ġtantas":5813,"Ġkuye":5814,"habrÃ¡":5815,"ĠÃ©sto":5816,"Ġwinkamu":5817,"Ã±mangen":5818,"ĠHua":5819,"buena":5820,"ĠsacÃ³":5821,"Ġsacaban":5822,"Ġrecupera":5823,"Ġaparte":5824,"Ġestudiar":5825,"Ġdunguy":5826,"Ġvacuna":5827,"Ġrulpa":5828,"Ġobserv":5829,"Ġpaysanu":5830,"Ġbueyes":5831,"racti":5832,"Ġgolpe":5833,"Ġvoluntad":5834,"Ġequiv":5835,"00":5836,"atu":5837,"icula":5838,"kina":5839,"peymi":5840,"posta":5841,"term":5842,"Ġpengeki":5843,"eramente":5844,"Ġkaletuy":5845,"Ġawelu":5846,"Ġtungi":5847,"Ġentuy":5848,"orra":5849,"Ã¼len":5850,"tira":5851,"Ġpica":5852,"iÃ±i":5853,"feymew":5854,"ĠwÃ¼y":5855,"kaken":5856,"fitu":5857,"Ġmeki":5858,"pika":5859,"eluwi":5860,"Ġandas":5861,"ĠkimfiÃ±":5862,"Ġsiga":5863,"ĠcuÃ¡n":5864,"luwÃ¼n":5865,"Ġtungeki":5866,"tunolu":5867,"zada":5868,"ĠveÃŃa":5869,"Ġlleve":5870,"Ġraiz":5871,"Ent":5872,"Ġpueda":5873,"kimlu":5874,"ĠniÃ±ito":5875,"Ġquince":5876,"Ġcabello":5877,"Ġencontre":5878,"Ġdoctores":5879,"Ġchachay":5880,"Ġcomple":5881,"IÃ±chiÃ±":5882,"ĠwilleÃ±mu":5883,"ĠsentÃŃa":5884,"trÃ¼fÃ¼n":5885,"Ġdormir":5886,"Ġpadmu":5887,"ĠevangÃ©li":5888,"calip":5889,"PA":5890,"bÃŃ":5891,"cÃ©":5892,"cando":5893,"femu":5894,"gn":5895,"tue":5896,"yeme":5897,"Ã¼ki":5898,"Ġtor":5899,"Ġcami":5900,"Ġpuso":5901,"tita":5902,"dian":5903,"Ġkatripache":5904,"Ġmadera":5905,"Ġwel":5906,"pitali":5907,"ĠmÃ¼lerki":5908,"ĠngÃ¼ll":5909,"umo":5910,"ueno":5911,"Ġniaymi":5912,"ĠalgÃºn":5913,"layu":5914,"Ġfemkelay":5915,"Ġpasmu":5916,"ĠmÃ¼lepuy":5917,"eymiam":5918,"Ġtron":5919,"chul":5920,"Ġcascara":5921,"Ġamfe":5922,"pÃ¼trÃ¼n":5923,"kani":5924,"Ġlibre":5925,"Ġresf":5926,"KuÃ±i":5927,"ĠirÃ©":5928,"Ġviviendo":5929,"ĠÃ¼yÃ¼w":5930,"Ġgrasa":5931,"Trafentun":5932,"ĠMar":5933,"Ġguata":5934,"Pichike":5935,"Ġ.....":5936,"decÃŃan":5937,"chuchimu":5938,"Ġtemprano":5939,"Ġacabo":5940,"Ġdoce":5941,"ĠrangiantÃ¼":5942,"Ġhabilidades":5943,"Com":5944,"Fam":5945,"Meli":5946,"Ram":5947,"caban":5948,"foye":5949,"pol":5950,"remedios":5951,"utu":5952,"uken":5953,"Ġolor":5954,"ĠÃĳan":5955,"Ġpeso":5956,"aye":5957,"Ġfentr":5958,"Ġpudo":5959,"Ġpimi":5960,"Ġwell":5961,"pira":5962,"papeyu":5963,"Ġhaces":5964,"Ġinteli":5965,"Ġllen":5966,"Ġalta":5967,"Ġaltura":5968,"viene":5969,"Ġtuwi":5970,"Ġsalia":5971,"Ġsalvar":5972,"Ġnieken":5973,"Ġcomia":5974,"nadie":5975,"Ġcoli":5976,"Ġlikan":5977,"Ġllegaban":5978,"ĠCamar":5979,"tuley":5980,"ĠpÃ¼tokoal":5981,"ĠwÃ¼tre":5982,"Ġdistinta":5983,"ĠngÃ¼ma":5984,"ĠpikeyngÃ¼n":5985,"Pasto":5986,"Ġawanta":5987,"ĠÃ¼trir":5988,"ĠfirkÃ¼":5989,"Ġmaneja":5990,"Ġlavaba":5991,"Ġbebida":5992,"existen":5993,"SerÃ¡":5994,"ernardo":5995,"perior":5996,"Ġvomitar":5997,"persona":5998,"Ġapenas":5999,"cluso":6000,"Cor":6001,"avan":6002,"etew":6003,"fÃ¼ll":6004,"gri":6005,"gamos":6006,"wiÃ±":6007,"wentr":6008,"Ãī":6009,"ĠK":6010,"ĠV":6011,"ĠSe":6012,"ĠlÃŃ":6013,"erkelay":6014,"Ġkol":6015,"Ġakul":6016,"Ġareg":6017,"Ġtemas":6018,"Ġfar":6019,"Ġhos":6020,"tula":6021,"truy":6022,"inero":6023,"keaymi":6024,"Ġelig":6025,"Ġsean":6026,"ĠdirÃŃa":6027,"Ġwes":6028,"ngepay":6029,"ĠtikÃ¼n":6030,"Ġgall":6031,"Ġinchi":6032,"ĠviÃ³":6033,"Ġsuperior":6034,"Ġtuk":6035,"Ġmote":6036,"cura":6037,"cuÃ¡n":6038,"cuanto":6039,"Ġfemlu":6040,"feytachi":6041,"payu":6042,"Che":6043,"Ġdijimos":6044,"Ġnace":6045,"ĠsoÃ±e":6046,"Ġmanzana":6047,"Ġcasas":6048,"Ġsanchu":6049,"Ġtrabajos":6050,"llego":6051,"llega":6052,"Chumal":6053,"paso":6054,"Mongen":6055,"Ġfamuechi":6056,"Ġaftuy":6057,"Ġdarle":6058,"ĠpÃ¼tokongeki":6059,"Ġkimniey":6060,"Ġpulgante":6061,"Ġaprende":6062,"Ġenfermizos":6063,"wetukelay":6064,"Ġrupalu":6065,"Ġescuchaba":6066,"Ġyamkefuy":6067,"Ġawela":6068,"Ġkultrung":6069,"Ġtushpu":6070,"Ġsentir":6071,"kellimay":6072,"fÃ¼take":6073,"Ġpantal":6074,"rumel":6075,"Ġkellun":6076,"Ġmontulelay":6077,"dungÃ¼n":6078,"ĠdueÃ±os":6079,"Ġcacique":6080,"Aku":6081,"San":6082,"fina":6083,"pange":6084,"ventu":6085,"vÃ¼Ã±":6086,"Ġz":6087,"ĠÃ±ochi":6088,"ngÃ¼m":6089,"tuve":6090,"tuwi":6091,"tukevuy":6092,"tukungi":6093,"pulu":6094,"Ġchunte":6095,"ques":6096,"Ġestabamos":6097,"Ġhaz":6098,"lumu":6099,"enterio":6100,"Ġtotal":6101,"cul":6102,"cual":6103,"mollfÃ¼Ã±":6104,"zado":6105,"Ġeu":6106,"ĠhuÃ©rf":6107,"ĠmÃ¼lepelay":6108,"Ġnosotro":6109,"Ġdijieron":6110,"Ġamuan":6111,"ĠkompÃ¼le":6112,"kimpa":6113,"Ġrogar":6114,"Ġtomaban":6115,"ĠharÃŃa":6116,"Ġcomian":6117,"Kimlan":6118,"kutrankaw":6119,"Ġeluw":6120,"ĠnÃ¼tramkay":6121,"Ġfelewelay":6122,"ĠviviÃ³":6123,"ĠencontrÃ©":6124,"Ġhiciste":6125,"Ġkuydaw":6126,"machimu":6127,"Ġmiawki":6128,"Ġfentepuay":6129,"todavia":6130,"Ġkalku":6131,"Ġdiagnostica":6132,"Ġdiagnosticar":6133,"Ġtukulelngi":6134,"Ġmolesta":6135,"Ġvalorar":6136,"Ġtuviera":6137,"Ġregle":6138,"Ġchod":6139,"Ġtranquilo":6140,"Entonce":6141,"Du":6142,"Exis":6143,"Peu":6144,"PÃ¼tr":6145,"dueÃ±o":6146,"ias":6147,"rangi":6148,"uwi":6149,"waw":6150,"chol":6151,"andan":6152,"Ġpuras":6153,"Ġvente":6154,"Ġvenga":6155,"Ġnome":6156,"Ġlagun":6157,"Ġpiru":6158,"Ġpikevuy":6159,"Ġdefen":6160,"ngepe":6161,"llay":6162,"pir":6163,"Ġtifu":6164,"leken":6165,"Ġbru":6166,"ĠkimÃ¼y":6167,"orado":6168,"Ġllalla":6169,"Ġcuchi":6170,"Ġcuarenta":6171,"Ġvieron":6172,"peum":6173,"Ġsalgo":6174,"Ġpingiama":6175,"witran":6176,"Ġkuyfikeche":6177,"amuli":6178,"Kimfimi":6179,"Ġdeje":6180,"mangelmi":6181,"Ġquie":6182,"Ġandamos":6183,"Pichin":6184,"Ġsangra":6185,"Ġjuntaron":6186,"Ġllamo":6187,"kefimÃ¼n":6188,"Mongel":6189,"Mongetuy":6190,"Ġhongo":6191,"Ġeras":6192,"Ġyagelmu":6193,"Ġramtun":6194,"Ġfiesta":6195,"Ġterminando":6196,"Ġsufrido":6197,"ĠPas":6198,"ĠHu":6199,"Ġfanten":6200,"Ġbotado":6201,"Ãĳam":6202,"Ġjuntamos":6203,"emoria":6204,"fÃ¼chakeche":6205,"Ġpepapeyu":6206,"Ġfellentun":6207,"Ġcuidarse":6208,"Ġovejas":6209,"????????????????":6210,"mÃ¼Ã±etu":6211,"Ġceniza":6212,"'?.":6213,"Ca":6214,"Kangelu":6215,"Lleg":6216,"Mas":6217,"PÃ¼r":6218,"Palo":6219,"Wesa":6220,"dero":6221,"nual":6222,"oper":6223,"ukÃ¼le":6224,"wÃ¼la":6225,"Ġpracti":6226,"Ġkang":6227,"Ġdere":6228,"alwe":6229,"Ġputu":6230,"Ġpuros":6231,"mekey":6232,"medio":6233,"keki":6234,"Ġeluen":6235,"kaÃ±":6236,"Ġchengen":6237,"papel":6238,"Ġkutranken":6239,"Ġkutrankawi":6240,"ĠkimÃ¼Ã±":6241,"Ġolla":6242,"lul":6243,"ĠtrawÃ¼n":6244,"ĠmÃ¼leken":6245,"enual":6246,"Ġdatun":6247,"Ã¼yÃ¼u":6248,"Dicen":6249,"pÃ¼d":6250,"ĠmejorarÃŃa":6251,"Ġcambia":6252,"Pitru":6253,"kÃ¼melay":6254,"pichiken":6255,"Ġproce":6256,"alguna":6257,"Ġprimera":6258,"TÃ¼fey":6259,"ĠkÃ¼li":6260,"Ġencontrado":6261,"Ġcomprar":6262,"Ġsacando":6263,"ĠtÃ¼vachi":6264,"Ġwawyu":6265,"Ġhablando":6266,"Ġpipiminga":6267,"tienden":6268,"ĠdÃ©bil":6269,"Ġiglesia":6270,"FÃ¼tra":6271,"Kar":6272,"Primero":6273,"idos":6274,"pti":6275,"piÃ±":6276,"ĠPa":6277,"elelu":6278,"Ġapo":6279,"Ġfuy":6280,"tur":6281,"tuchi":6282,"queo":6283,"Ġvemos":6284,"kiyin":6285,"pica":6286,"trang":6287,"Ġleg":6288,"Ġleer":6289,"lekefuy":6290,"Ġchenge":6291,"Ġchalla":6292,"dedor":6293,"lamuen":6294,"laviÃ±":6295,"Ġgor":6296,"engele":6297,"kuifi":6298,"Ġvir":6299,"Ġiael":6300,"Ġtuchi":6301,"Ġmongi":6302,"ĠmÃ¼Ã±e":6303,"layay":6304,"ĠpasÃ©":6305,"Ġsafa":6306,"lanu":6307,"aulu":6308,"Ġarve":6309,"allÃŃ":6310,"Ġbebiendo":6311,"ĠbaÃ±a":6312,"Ġpinu":6313,"Ġnuevos":6314,"Ã¼trÃ¼f":6315,"Ġquedaba":6316,"Ġchac":6317,"Ġbebo":6318,"Ġencontraba":6319,"Ġencontraron":6320,"Ġperimontu":6321,"Nielay":6322,"Wichu":6323,"Ġoperar":6324,"Ġocu":6325,"cinco":6326,"Ġauxiliar":6327,"Ġ......":6328,"Ġnorte":6329,"Ġkoyam":6330,"resiÃ³n":6331,"Ġporoto":6332,"Ġguaguas":6333,"Ġespecial":6334,"Empa":6335,"apenas":6336,"Aquel":6337,"Fali":6338,"Yam":6339,"cÃ¡ncer":6340,"iy":6341,"leli":6342,"nom":6343,"omu":6344,"encon":6345,"erpuy":6346,"Ã±may":6347,"Ã±pÃ¼ram":6348,"ĠdÃ¡":6349,"Ġtapa":6350,"Ġfoy":6351,"Ġputo":6352,"Ġener":6353,"queda":6354,"Ġvemechi":6355,"Ġveneno":6356,"mira":6357,"Ġpipeyu":6358,"ampo":6359,"Ġdiga":6360,"Ġkako":6361,"Ġfeyngepi":6362,"Ġway":6363,"quer":6364,"lif":6365,"kÃ¼rÃ¼f":6366,"angeli":6367,"Ġfemnge":6368,"Ġfemngelu":6369,"Ġfemkelan":6370,"Ġtraen":6371,"ĠmÃ¼leke":6372,"gundo":6373,"fuin":6374,"Ã©sta":6375,"kimlafiÃ±":6376,"Ġsoba":6377,"ĠsoÃ±ado":6378,"ĠharÃ¡":6379,"Ġasma":6380,"Kimni":6381,"vantenmu":6382,"niefiÃ±":6383,"Veychi":6384,"Ġcolocaba":6385,"hacen":6386,"Ġtantos":6387,"Ġprote":6388,"Ġllamar":6389,"tualmente":6390,"Ġllegara":6391,"Ġsalieron":6392,"Ġfachi":6393,"ĠMarÃŃa":6394,"Ġtuni":6395,"ĠfÃ¼chake":6396,"saben":6397,"ĠvolvÃŃ":6398,"Ġbota":6399,"Tripa":6400,"fÃ¼takeche":6401,"Ġdungumew":6402,"ĠtrÃ¼rlay":6403,"ĠsoÃ±ar":6404,"Ġwecheke":6405,"faupÃ¼le":6406,"Ġpolvo":6407,"Ġrogando":6408,"Ġacompa":6409,"Ġpehuenche":6410,"Ġpronto":6411,"Ġeucalip":6412,"Comi":6413,"Lonquimay":6414,"PÃ¼tra":6415,"Ve":6416,"acaso":6417,"efuy":6418,"jaban":6419,"pl":6420,"rer":6421,"Ġprin":6422,"chumechi":6423,"ĠdÃŃ":6424,"Ġnam":6425,"ral":6426,"Ġpusieron":6427,"muera":6428,"Ġrom":6429,"ĠrÃ¼le":6430,"Ġvelen":6431,"Ã¼lay":6432,"ĠquedÃ³":6433,"Ġyall":6434,"Ġtifus":6435,"Ġban":6436,"Ġllenu":6437,"kuela":6438,"ĠcuÃ±ado":6439,"Ġopital":6440,"Ġreco":6441,"Ġsuelo":6442,"quiÃ©n":6443,"Ġtrapom":6444,"Ġrag":6445,"ĠallfÃ¼l":6446,"amule":6447,"Yaf":6448,"etuki":6449,"Ġcorto":6450,"ĠnÃ¼tramkal":6451,"Ġllegamos":6452,"Ġfamilias":6453,"Mongey":6454,"Trafen":6455,"Ġplantas":6456,"ĠlimÃ³n":6457,"Ġponer":6458,"ĠfÃ¼rey":6459,"Ngillatu":6460,"TenÃŃa":6461,"Ġllenoanta":6462,"Gracia":6463,"saliÃ³":6464,"Ġlarga":6465,"Fue":6466,"Fentren":6467,"SPA":6468,"Term":6469,"Tran":6470,"tÃ³n":6471,"upay":6472,"vÃ¼l":6473,"vina":6474,"Ġpela":6475,"Ġpesa":6476,"chÃŃ":6477,"Ã±am":6478,"empa":6479,"meken":6480,"kefeneu":6481,"Ġpingelay":6482,"awtuy":6483,"bierno":6484,"Ġmatar":6485,"ĠwaskÃ¼m":6486,"kaÃ±pÃ¼le":6487,"ngekevuy":6488,"ngetuki":6489,"fili":6490,"Ġlocro":6491,"Ġkulle":6492,"ĠkutrankÃ¼len":6493,"Ġochenta":6494,"quizÃ¡s":6495,"cendencia":6496,"Ġsalga":6497,"Ġcopa":6498,"ĠnatrÃ¼ng":6499,"Ġamulu":6500,"eÃ±ma":6501,"pali":6502,"kaymi":6503,"-----":6504,"Ġniekey":6505,"Ġcomemos":6506,"Ġdesgracia":6507,"chumlen":6508,"Ġcolo":6509,"Ġtripakefuy":6510,"Ġtripapay":6511,"respe":6512,".................":6513,"Ġcorte":6514,"ĠnÃ¼trammu":6515,"Ġtremlu":6516,"Antiguamente":6517,"Ġuti":6518,"turaleza":6519,"wenolu":6520,"Estamos":6521,"Ġmawidameu":6522,"cosas":6523,"ĠrÃ¼me":6524,"Ġramtua":6525,"Ġrespetaban":6526,"kelle":6527,"Ġamarilla":6528,"ngillatun":6529,"Ġenojo":6530,"ĠkuÃ±ifal":6531,"kellelay":6532,"emonio":6533,"Ġbuscaba":6534,"Ġpengel":6535,"xxx":6536,"Ġvarias":6537,"ĠÃ¡rboles":6538,"Ġdomin":6539,"Ġmeulen":6540,"kallal":6541,"ĠmÃ¡quina":6542,"Ġacostumbra":6543,"Ġprinci":6544,"Gran":6545,"Kamapu":6546,"Kaletuy":6547,"Lla":6548,"Poy":6549,"iamos":6550,"nen":6551,"pr":6552,"plo":6553,"yew":6554,"Ã±uke":6555,"Ġacomo":6556,"Ġaveces":6557,"ayafuy":6558,"ala":6559,"alka":6560,"Ġpus":6561,"Ġpuke":6562,"muriÃ³":6563,"Ġpilan":6564,"Ġwem":6565,"piti":6566,"pito":6567,"Ġkutra":6568,"decia":6569,"Ġngeme":6570,"Ġkimkefuy":6571,"Esas":6572,"viendo":6573,"angre":6574,"mong":6575,"ĠmÃ¼lekelu":6576,"Ġsaque":6577,"Femkey":6578,"Ġkonlu":6579,"yaf":6580,"Ġtomaron":6581,"ĠcaÃŃ":6582,"Ġsanos":6583,"parte":6584,"Ġmismos":6585,"Ġtiempu":6586,"Ġnuevamente":6587,"Ġtrans":6588,"Ġhervir":6589,"cosa":6590,"Ġempacha":6591,"tuayiÃ±":6592,"Ġmejorarse":6593,"Ġgusto":6594,"Ġhierba":6595,"Ġextra":6596,"Ġaguanta":6597,"Rupay":6598,"Nadie":6599,"Ġdungumeu":6600,"Ġconsumen":6601,"otras":6602,"Ġwentrungelu":6603,"Ġsituaciones":6604,"Ġtuvieron":6605,"Ġcrecimos":6606,"mongenmu":6607,"debes":6608,"Ġpartici":6609,"Ġcuchillo":6610,"AÃºn":6611,"Awem":6612,"Par":6613,"Pamu":6614,"agel":6615,"bastante":6616,"ccion":6617,"penge":6618,"pÃ¼llÃ¼":6619,"Ġkawi":6620,"Ã±Ã¼":6621,"Ġavece":6622,"ngerki":6623,"ÃŃdos":6624,"kevin":6625,"Ġpicante":6626,"awpÃ¼le":6627,"Ġeleg":6628,"ĠwÃ¼ll":6629,"ngevuy":6630,"fis":6631,"latun":6632,"ĠmÃ¼lewelay":6633,"Ġpapas":6634,"Ġnialu":6635,"Ġcuchara":6636,"ĠcuÃ±ada":6637,"Ġhir":6638,"troki":6639,"peu":6640,"ĠfuÃŃ":6641,"ĠdijÃ©":6642,"Ġnatri":6643,"Entra":6644,"Ġkoll":6645,"Ġperdio":6646,"Ġmandan":6647,"chumli":6648,"ĠpoÃ±i":6649,"YafÃ¼":6650,"ĠsanÃ³":6651,"Ġvoya":6652,"triu":6653,"Ġling":6654,"Ġpalos":6655,"kawellu":6656,"niekefuy":6657,"Ġtremol":6658,"kÃ¼leal":6659,"kuyda":6660,"Quien":6661,"ĠfillpÃ¼le":6662,"Ġseguramente":6663,"ĠayÃ¼w":6664,"Ġplantado":6665,"sabÃŃa":6666,"Ġcuidan":6667,"gencia":6668,"Ġtocar":6669,"Ġmawisa":6670,"Ġalivio":6671,"Ġaliviar":6672,"CuÃ¡ntos":6673,"ĠÃ¼yÃ¼upÃ¼le":6674,"Ġospitalmu":6675,"pewmamu":6676,"pawelay":6677,"TÃ¼fichi":6678,"QuiÃ©n":6679,"ĠngÃ¼neduam":6680,"Ġpermiso":6681,"Ġhelada":6682,"ĠriÃ±Ã³n":6683,"ĠnanÃ¼ng":6684,"Ġpaterno":6685,"Kuyvi":6686,"FaupÃ¼le":6687,"ĠniÃ±itos":6688,"Ġverguenza":6689,"Ġadelante":6690,"Ġutili":6691,"Co":6692,"Foye":6693,"Maw":6694,"Sal":6695,"WadkÃ¼m":6696,"ber":6697,"eta":6698,"mali":6699,"rÃŃamos":6700,"ufuy":6701,"Ġ%":6702,"ĠpÃ¼ll":6703,"Ġpesos":6704,"elun":6705,"ngÃ¼f":6706,"Ġtayu":6707,"Ġner":6708,"muday":6709,"damos":6710,"timo":6711,"Ġpia":6712,"ĠsegÃºn":6713,"digo":6714,"Ġwal":6715,"ngetun":6716,"Ġremedies":6717,"decian":6718,"Ġande":6719,"lafun":6720,"Ġkutrankelay":6721,"Ġkutranmeu":6722,"engewelay":6723,"tuymu":6724,"Estan":6725,"cur":6726,"Ġfemwelay":6727,"peg":6728,"Ġhubo":6729,"Ġcobra":6730,"Ġrumi":6731,"Ã¼rÃ¼":6732,"Ġkomew":6733,"Ġniekefun":6734,"Ġacal":6735,"Ġpollo":6736,"kunungi":6737,"Ġadonde":6738,"Ġasta":6739,"Ġmongetun":6740,"Ġcanas":6741,"Conoc":6742,"Ġfelelafuy":6743,"iefiÃ±":6744,"Ġescuche":6745,"Ġpelota":6746,"Ġpelotun":6747,"angechi":6748,"ewetuy":6749,"Ġmiawken":6750,"ĠrÃ¼ng":6751,"Ġaye":6752,"Muchos":6753,"Ġamarrado":6754,"Ġrumey":6755,"erupu":6756,"Ġquebrado":6757,"Ġpreparar":6758,"ĠkuÃ±iw":6759,"Ġacuer":6760,"Ġwesake":6761,"Ġobserva":6762,"Ġconverza":6763,"Ġarrodill":6764,"Ġseparado":6765,"ĠAnti":6766,"zugun":6767,"Ġngolli":6768,".!":6769,"Epe":6770,"Lli":6771,"Meno":6772,"Otro":6773,"Pel":6774,"Sali":6775,"Tom":6776,"cÃ¡n":6777,"hermana":6778,"kamapu":6779,"neyu":6780,"pam":6781,"sano":6782,"wlay":6783,"zca":6784,"Ġ----------------":6785,"ancian":6786,"elngen":6787,"Ġesco":6788,"ementerio":6789,"tukelu":6790,"tulen":6791,"alim":6792,"allos":6793,"Ġros":6794,"ĠentrÃ©":6795,"feynge":6796,"Ġfeyka":6797,"ĠwiÃ±":6798,"Ġwent":6799,"llar":6800,"fida":6801,"cita":6802,"pilay":6803,"Ġcontinu":6804,"Ġcheyem":6805,"pafmu":6806,"ĠtÃ¼rpu":6807,"engÃ¼":6808,"Ġhaci":6809,"Ġrefu":6810,"Ġsuam":6811,"luam":6812,"nico":6813,"ĠtÃ¼famew":6814,"peuma":6815,"eliyiÃ±":6816,"Ġtamien":6817,"kimlaymi":6818,"Ġchumngen":6819,"ĠniefiÃ±":6820,"Ġrojo":6821,"Ġhacerle":6822,"Ġarina":6823,"kalan":6824,"wÃ¼nmu":6825,"ruka":6826,"Ġcambi":6827,"KÃ¼mi":6828,"ĠbaÃ±o":6829,"Ġseguido":6830,"Ġkimnielu":6831,"serva":6832,"ĠwÃ¼lleÃ±":6833,"Ġllevamos":6834,"vine":6835,"Kichu":6836,"tungeal":6837,"Ġrespetan":6838,"Ġpunta":6839,"pinela":6840,"chengelay":6841,"Ġquerer":6842,"Ġpuwlay":6843,"Ġkudeke":6844,"Ġmatrimon":6845,"vule":6846,"ĠsiguiÃ³":6847,"Ġtripalay":6848,"Ġwentrungen":6849,"Ġlongkon":6850,"reciÃ©n":6851,"Ġevangeli":6852,"Ġtroltro":6853,"Ġvertiente":6854,"Ġprofesor":6855,"Ġfamiliares":6856,"Ġhospitali":6857,"Ac":6858,"Aunque":6859,"Nien":6860,"ejo":6861,"ilo":6862,"ingÃ¼n":6863,"kangey":6864,"mey":6865,"wu":6866,"zamos":6867,"Ġlana":6868,"Ġce":6869,"ĠrÃŃ":6870,"orro":6871,"ketui":6872,"tito":6873,"ĠquebrÃ³":6874,"Ġdiabe":6875,"Ġmapun":6876,"Ġwall":6877,"Ã¡l":6878,"Ã³s":6879,"fuyngÃ¼n":6880,"Ġkutranchenge":6881,"Ġngey":6882,"Ġpago":6883,"Ġkimnge":6884,"Ġniele":6885,"macia":6886,"ĠvivÃŃa":6887,"guida":6888,"Ġhicimos":6889,"Ġmotri":6890,"Ġtratar":6891,"Ġtratami":6892,"Ġchemchi":6893,"mongelay":6894,"Ġsald":6895,"wekÃ¼fÃ¼":6896,"ĠmÃ¼lechi":6897,"Ġnamun":6898,"Ġamulen":6899,"Ġkompa":6900,"Kafey":6901,"afuyiÃ±":6902,"kimne":6903,"------":6904,"Ġdatu":6905,"ĠkÃ¼men":6906,"Ġduerme":6907,"Ġmongenmeu":6908,"Ġjus":6909,"pÃ¼tr":6910,"kaley":6911,"Ngewetulay":6912,"Ġtripakelay":6913,"Ġdejaban":6914,"Ġorden":6915,"Ġencuentros":6916,"aleki":6917,"Ġvenia":6918,"Anda":6919,"iefi":6920,"hacer":6921,"Todas":6922,"Ġjode":6923,"Ġpregunte":6924,"Ġabuelita":6925,"Ġchaf":6926,"ĠmiawÃ¼l":6927,"Ġseguimos":6928,"ĠaprendÃŃ":6929,"Ġtomarlo":6930,"MÃ¼lekefuy":6931,"Ġoperan":6932,"Ġoraciones":6933,"Ġescuchando":6934,"Ġaguas":6935,"Ġmawel":6936,"huinca":6937,"ĠbaÃ±an":6938,"Ġproblemas":6939,"Ġfemeke":6940,"pÃ¼take":6941,"Ġatender":6942,"Ġdebili":6943,"Ġfermentada":6944,"ĠkimpafiÃ±":6945,"Ġngulli":6946,"Ġmaterna":6947,"Ġsentado":6948,"Ġtengan":6949,"Ġinarumen":6950,"Ġmetawe":6951,"pilep":6952,"Mawida":6953,"NÃ¼tram":6954,"han":6955,"lÃ¼f":6956,"say":6957,"sas":6958,"vele":6959,"vali":6960,"wey":6961,"ĠVictoria":6962,"Ġpri":6963,"erba":6964,"eramos":6965,"ngos":6966,"Ġtata":6967,"Ġsentar":6968,"ĠnÃ¼m":6969,"ĠfÃ¼y":6970,"Ġruego":6971,"ĠvÃŃ":6972,"arriba":6973,"dame":6974,"Ġsector":6975,"Ġmau":6976,"Ġmami":6977,"rea":6978,"piam":6979,"pitru":6980,"elungi":6981,"Ġtiro":6982,"Ġlechu":6983,"Ġkutranche":6984,"uman":6985,"Ġkimwetu":6986,"Ġincluso":6987,"Ġllena":6988,"kutu":6989,"kÃ¼tu":6990,"Ġhuer":6991,"Ġchumli":6992,"ĠharÃ¡s":6993,"Ġmejores":6994,"Ġmedikamu":6995,"Ġfeypiken":6996,"mÃ¼lekey":6997,"dano":6998,"Ġnienolu":6999,"Ġcolocaban":7000,"ellipuy":7001,"Ġjote":7002,"olegio":7003,"Ġakutuy":7004,"ĠseÃ±oras":7005,"ĠkÃ¼dawal":7006,"mÃ¼chay":7007,"Ġpikenu":7008,"Ġningun":7009,"Ġenojado":7010,"Ġflores":7011,"Ġpelon":7012,"Ġconsume":7013,"fÃ¼chake":7014,"pÃ¼takeche":7015,"ĠchoyÃ¼n":7016,"fÃ¼trake":7017,"Ġlavarse":7018,"Ġvamngechi":7019,"Ġmostra":7020,"ĠBernardo":7021,"Ġconsider":7022,"volver":7023,"RÃ¼ngÃ¼l":7024,"Ġviejita":7025,"Ġpeligr":7026,"ĠLautaro":7027,"Ġabuelos":7028,"),":7029,"Cal":7030,"Cin":7031,"Kintu":7032,"Wech":7033,"gano":7034,"hospital":7035,"ion":7036,"igu":7037,"kolu":7038,"malu":7039,"rmi":7040,"tina":7041,"vÃ¼n":7042,"wew":7043,"yaw":7044,"Ġpell":7045,"Ġmesa":7046,"elenu":7047,"Ġdemonio":7048,"Ġtama":7049,"Ġsor":7050,"Ġtele":7051,"chill":7052,"alÃ¼":7053,"alÃ¼n":7054,"alngi":7055,"trin":7056,"keper":7057,"Ġpis":7058,"Ġmaque":7059,"pum":7060,"Ġwad":7061,"fica":7062,"rilla":7063,"ĠkutrankÃ¼li":7064,"ĠkutrankÃ¼lelu":7065,"Ġkimpelafimi":7066,"uena":7067,"ungelay":7068,"luw":7069,"vido":7070,"layafuy":7071,"layaymi":7072,"ĠsabrÃŃa":7073,"Ġchemki":7074,"Ġfuiste":7075,"Ġamuaymi":7076,"lantro":7077,"eÃ±um":7078,"ĠÃ±an":7079,"yafÃ¼":7080,"Ġforta":7081,"Ġpodia":7082,"pÃ¼mi":7083,"Ġarran":7084,"Ġlamgen":7085,"Ġtripapan":7086,"Ġcortan":7087,"tukimi":7088,"Ġketran":7089,"KÃ¼pa":7090,"Ġbajar":7091,"Ġcardo":7092,"Ġfoki":7093,"Mongelay":7094,"Ġafkentu":7095,"Ġbeben":7096,"ĠkÃ¼dawmu":7097,"Ġaprendi":7098,"Ġenseguida":7099,"ĠĠĠĠĠĠĠĠĠĠĠĠ":7100,"Ġsacado":7101,"Ġnielaymi":7102,"ĠfÃ¼takecheyem":7103,"Rupa":7104,"Vemuechi":7105,"Ġsentido":7106,"ĠvivÃŃan":7107,"Napor":7108,"ĠRosa":7109,"Ġrico":7110,"Ġwechekeche":7111,"Ġbuscando":7112,"ĠdeberÃŃa":7113,"Ġnasal":7114,"conversa":7115,"Ġbosque":7116,"ĠreuniÃ³n":7117,"Ġcumpli":7118,"Ġiyael":7119,"Ġprocedencia":7120,"ptiembre":7121,"Ho":7122,"aÃ±o":7123,"atew":7124,"folil":7125,"jamos":7126,"mÃ¼rke":7127,"rey":7128,"wela":7129,"ĠPor":7130,"ĠPu":7131,"Ġpoca":7132,"Ġpentuku":7133,"elas":7134,"Ġawe":7135,"ayki":7136,"ĠtÃ©":7137,"onko":7138,"Ġpuse":7139,"Ġpuerta":7140,"trona":7141,"inti":7142,"mean":7143,"ketu":7144,"kevel":7145,"Ġlawen":7146,"Ġpial":7147,"Ġpiso":7148,"Ġpilen":7149,"Ġdeca":7150,"Ġsetenta":7151,"dici":7152,"ĠkatrÃ¼n":7153,"llellipu":7154,"fir":7155,"Ġyu":7156,"Ġyengen":7157,"dejo":7158,"paken":7159,"ĠpaÃ±o":7160,"Ġhagan":7161,"Ġmiro":7162,"umaw":7163,"Ã¡scara":7164,"duele":7165,"lig":7166,"tunte":7167,"Ġfemal":7168,"Ġpasamos":7169,"Ġtraje":7170,"...Â¿":7171,"Ġdungual":7172,"Ġhuerta":7173,"ĠtÃ¼fika":7174,"FemÃ¼y":7175,"ĠiÃ±chi":7176,"Ġconversan":7177,"kelafi":7178,"ĠtomÃ©":7179,"tÃ¼fameu":7180,"allin":7181,"venta":7182,"Ġentraron":7183,"Ġpewmay":7184,"antas":7185,"mÃ¼lepi":7186,"mapuchemu":7187,"ĠcariÃ±o":7188,"kÃ¼nuki":7189,"Ġtranan":7190,"Ġdebo":7191,"Ġherencia":7192,"Ġtrafoy":7193,"Ġlonco":7194,"ĠkÃ¼lelu":7195,"ariamu":7196,"ĠLonkimay":7197,"Ġolvidar":7198,"buenas":7199,"Pichikeche":7200,"PewÃ¼":7201,"ĠsintiÃ³":7202,"conoci":7203,"ĠkuÃ±ifall":7204,"PÃ¼to":7205,"Tripay":7206,"Ġalcanzar":7207,"Ġayiw":7208,"Ġfirme":7209,"Ġumau":7210,"ĠpepiluwÃ¼n":7211,"Ġwerken":7212,"Ġ..%":7213,"Ġaplica":7214,"Ġderrepente":7215,"NgÃ¼lam":7216,"WÃ¼ne":7217,"encima":7218,"WÃ¼Ã±o":7219,"Ġgallina":7220,"\",":7221,"Domo":7222,"Duam":7223,"Pelay":7224,"Voy":7225,"cera":7226,"fÃŃa":7227,"ho":7228,"ible":7229,"pemu":7230,"Ġpali":7231,"Ġlis":7232,"Ġlimon":7233,"antigu":7234,"elle":7235,"emente":7236,"Ġcanta":7237,"ondo":7238,"alelu":7239,"Ġrio":7240,"Ġrosa":7241,"Ġenero":7242,"miau":7243,"Ġpili":7244,"Ġkafon":7245,"ĠyÃ¼f":7246,"ĠmeÃ±":7247,"piu":7248,"Ġtiemu":7249,"fuyiÃ±":7250,"ĠngÃ¼Ã±":7251,"Ġunen":7252,"umay":7253,"Ġindec":7254,"mate":7255,"Ġrecor":7256,"Ġmachingen":7257,"ĠmÃ¼trÃ¼m":7258,"asÃŃke":7259,"ĠĠĠčĊ":7260,"rante":7261,"palo":7262,"palan":7263,"Ġhospitales":7264,"ĠkÃ¼meley":7265,"awimi":7266,"Ġcaballos":7267,"mÃ¼len":7268,"Ġaremu":7269,"Kimngelay":7270,"Kimlaymi":7271,"rul":7272,"Ġhombro":7273,"Ġmongeal":7274,"Feytachi":7275,"Ġcansa":7276,"kelafuyngÃ¼n":7277,"munida":7278,"ĠkÃ¼melen":7279,"malen":7280,"MollfÃ¼Ã±":7281,"tuafimi":7282,"ĠbebÃŃa":7283,"ĠngÃ¼lliw":7284,"Ġcompro":7285,"ĉĉĉĉĉ":7286,"Ġagrada":7287,"ĠkÃ¼patun":7288,"ĠallkÃ¼tu":7289,"Ġvuelven":7290,"Ġvomita":7291,"Ġchilco":7292,"tukefimi":7293,"Ġrecuerdo":7294,"Ġorar":7295,"pÃ¼trake":7296,"kintun":7297,"ĠpÃ¼no":7298,"Mala":7299,"Ġquemado":7300,"Ġavanzado":7301,"pilun":7302,"Ġngillan":7303,"Ġtrafentuy":7304,"Ġpeuman":7305,"ĠpulmonÃŃa":7306,"falil":7307,"Ġclases":7308,"Ġadivin":7309,"Ġmundo":7310,"Ġfresco":7311,"ĠcayÃ³":7312,"ĠHuai":7313,"Am":7314,"Fir":7315,"Wentru":7316,"avi":7317,"dras":7318,"gni":7319,"ior":7320,"ila":7321,"izo":7322,"niÃ±":7323,"rel":7324,"ualu":7325,"venu":7326,"yel":7327,"ĠEs":7328,"estro":7329,"Ã¼ma":7330,"Ġmente":7331,"anas":7332,"Ġsungun":7333,"ayen":7334,"rapi":7335,"tutuy":7336,"tufin":7337,"Ġpuulu":7338,"iney":7339,"inaria":7340,"Ġentr":7341,"ardiente":7342,"kepe":7343,"Ġpipe":7344,"Ġpikeneu":7345,"kafi":7346,"Ã¡la":7347,"piken":7348,"pingen":7349,"Ġlejo":7350,"traw":7351,"ĠkÃ¼tror":7352,"ĠngaweÃ±":7353,"Ġkimno":7354,"Ġkimwetulan":7355,"ewey":7356,"Ġrevis":7357,"niy":7358,"ĠmÃ¼ta":7359,"Ġfemkey":7360,"ĠpÃ¼ram":7361,"Ġtrafia":7362,"ĠyafÃ¼l":7363,"ĠwekÃ¼fu":7364,"Ġamulan":7365,"pobre":7366,"Ġllemaychi":7367,"ĠngaÃ±":7368,"llav":7369,"Ġdulli":7370,"pÃ¼mu":7371,"Ġngeay":7372,"Ġngetuy":7373,"parto":7374,"...................":7375,"Ġmongeafuy":7376,"Ġayudo":7377,"Ġayudando":7378,"KÃ¼daw":7379,"Ġcere":7380,"Ġvaler":7381,"Ġnueve":7382,"Ġchakay":7383,"Ġtrafo":7384,"haber":7385,"Ġentregar":7386,"Ġsobrina":7387,"ĠkÃ¼lleg":7388,"ĠllegarÃ¡":7389,"Ġpiwkemu":7390,"Ġtrafentulu":7391,"KÃ¼melay":7392,"Ġtukulelngen":7393,"Ġatajar":7394,"Ġamulelu":7395,"HabrÃ¡":7396,"ĠkuÃ±ival":7397,"hartos":7398,"Ġarreglar":7399,"Ġpingerki":7400,"zanilla":7401,"ĠmaÃ±umnieyu":7402,"ĠocurriÃ³":7403,"Ġlavaban":7404,"Ġsobrepartu":7405,"Ġwefki":7406,"aranjo":7407,"Ġpose":7408,"ĠlewfÃ¼":7409,"ĠAlfarinu":7410,"Ġuficha":7411,"Ġasukura":7412,"FÃ¼r":7413,"Ill":7414,"Nues":7415,"Poco":7416,"bÃŃa":7417,"bri":7418,"iey":7419,"kangen":7420,"min":7421,"somos":7422,"vÃ¡":7423,"wer":7424,"wech":7425,"well":7426,"wall":7427,"wadkÃ¼m":7428,"taÃ±a":7429,"Ġkos":7430,"Ġdentra":7431,"Ġapura":7432,"tukelan":7433,"tuayu":7434,"dam":7435,"Ġpikefin":7436,"bidu":7437,"Ġdig":7438,"abas":7439,"Ġwechu":7440,"rededor":7441,"Ġcontar":7442,"leal":7443,"Ġchoc":7444,"tras":7445,"papen":7446,"pacio":7447,"Ġbon":7448,"Ġenfri":7449,"Feyentu":7450,"umey":7451,"Ġkimkefi":7452,"kur":7453,"maÃ±":7454,"Ġrevuelve":7455,"ĠrumeÃ±ma":7456,"likan":7457,"angelmi":7458,"Ġfemn":7459,"peque":7460,"dreg":7461,"kelayaymi":7462,"ĠmÃ¼lekay":7463,"Chil":7464,"Ġnatre":7465,"Ġamukey":7466,"Ġallfen":7467,"kiÃ±ekentu":7468,"Ġniekevuy":7469,"ĠcreciÃ³":7470,"engefuy":7471,"engekefuy":7472,"ĠfÃ¼re":7473,"rugas":7474,"Ġmongelu":7475,"fenten":7476,"cancer":7477,"kÃ¼lefuy":7478,"habian":7479,"Ġneg":7480,"Ġvivido":7481,"Ġhiciera":7482,"ĠkÃ¼palu":7483,"ĠkÃ¼melkay":7484,"pastilla":7485,"Ġprima":7486,"Ġakutun":7487,"Ġmentir":7488,"ĠpÃ¼tramu":7489,"ĠkÃ¼mekechi":7490,"Ġmare":7491,"pewÃ¼":7492,"Ġkawell":7493,"ĠchuchipÃ¼le":7494,"ĠpÃ¼ray":7495,"dungunmu":7496,"Ġbuscaban":7497,"Ġhablaba":7498,"Ġpiukemu":7499,"TrÃ¼r":7500,"jiga":7501,"recien":7502,"Ġpadres":7503,"ĠMachÃŃ":7504,"Ġanduve":7505,"menoko":7506,"Ġrewemu":7507,"mamÃ¡":7508,"Ġlaguna":7509,"Ġprincipio":7510,"Ġpeligroso":7511,"Hermana":7512,"Hoja":7513,"Ilel":7514,"Lig":7515,"Tamu":7516,"apÃ¼m":7517,"bar":7518,"ira":7519,"vewla":7520,"wel":7521,"Ġ1":7522,"Ġ<":7523,"entan":7524,"tayi":7525,"char":7526,"choy":7527,"Ġkas":7528,"Ġescaso":7529,"emum":7530,"tuka":7531,"tuwelay":7532,"inos":7533,"Ġenredadera":7534,"Ġveley":7535,"Ġpipey":7536,"Ġmakina":7537,"abu":7538,"ciencia":7539,"pifiÃ±":7540,"leche":7541,"Ġchalintu":7542,"Ġpekelay":7543,"pad":7544,"Ġbas":7545,"Ġngemu":7546,"ĠtÃ¼ng":7547,"Ġchicas":7548,"umerio":7549,"Ġkiman":7550,"Ġkimwelay":7551,"Ġkimwetulay":7552,"Ġkimngewelay":7553,"Ġins":7554,"Ġmapul":7555,"sigu":7556,"ĠrekÃ¼l":7557,"lichi":7558,"kÃ¼pay":7559,"quizas":7560,"angel":7561,"angelay":7562,"Ġmallin":7563,"Ġfemu":7564,"Ġfemngelay":7565,"Ġvecina":7566,"ĠwikÃ¼r":7567,"entumu":7568,"istitis":7569,"Ġnaturaleza":7570,"errado":7571,"Ã¼rkefuy":7572,"Fempell":7573,"tarÃŃa":7574,"-------":7575,"Ġchumlay":7576,"ĠmÃ¼leye":7577,"ĠtÃ¼feychi":7578,"Ġdomongelu":7579,"kanmu":7580,"Ġkidutu":7581,"Ġcapi":7582,"ellen":7583,"Ġngillatual":7584,"Ġestaremos":7585,"Ġcorrer":7586,"Ġmongeay":7587,"Ġllege":7588,"Veyti":7589,"neces":7590,"Ġvender":7591,"Ġabri":7592,"truf":7593,"oleta":7594,"ĠngÃ¼tramkay":7595,"Ġprimer":7596,"Ġpodria":7597,"serÃŃa":7598,"Tienen":7599,"Tute":7600,"Ġamarillo":7601,"ĠPell":7602,"Ġkaley":7603,"Ġculp":7604,"ĠsufrÃŃ":7605,"Ġpreparado":7606,"ĠenseÃ±al":7607,"egano":7608,"Ġaquellos":7609,"ĠNuevo":7610,"Ġpierna":7611,"Ġrefre":7612,"Ġjugo":7613,"Ġfurimu":7614,"Ġguarda":7615,"Ġwedwed":7616,"Ġalomejor":7617,"estuve":7618,"Ġtengas":7619,"Ġavergon":7620,"ĠpÃ¼chakeche":7621,"Ġllorando":7622,"ĠcalmÃ³":7623,"encuen":7624,"Perimontun":7625,"Ġgato":7626,"ĠtamaÃ±o":7627,"dregoso":7628,"Dungu":7629,"Dis":7630,"Fentre":7631,"Kechu":7632,"Or":7633,"WÃ¼tr":7634,"apren":7635,"blia":7636,"eteu":7637,"jÃ©":7638,"lmu":7639,"remos":7640,"tero":7641,"Â´":7642,"Ã¨":7643,"ĠSÃŃ":7644,"Ġja":7645,"enferm":7646,"Ã±mal":7647,"Ġdeyu":7648,"ĠdengÃ¼ll":7649,"Ġtambi":7650,"tuvo":7651,"trew":7652,"Ġeng":7653,"keafuy":7654,"tica":7655,"Ġpikelay":7656,"dida":7657,"Ġfeyke":7658,"Ġfeyngey":7659,"kavuy":7660,"Ġyewe":7661,"Ġyewen":7662,"Ġyeni":7663,"olay":7664,"dez":7665,"ĠkÃ¼ymi":7666,"Ġbron":7667,"Ġchicha":7668,"Ġmuelas":7669,"ngil":7670,"Ġrece":7671,"Ġrevuel":7672,"niel":7673,"kÃ¼tral":7674,"Ġtukefuy":7675,"tÃ¼vi":7676,"Ġaho":7677,"Ġhabra":7678,"elimu":7679,"ĠsolÃŃa":7680,"Ġpingimi":7681,"Ġambos":7682,"Ġcrecieron":7683,"tanos":7684,"Ġquin":7685,"chemchi":7686,"kÃ¼nuke":7687,"etulay":7688,"Ġadum":7689,"Ġorgan":7690,"Cuatro":7691,"Ġcortado":7692,"Ġtiempos":7693,"ĠdolÃŃa":7694,"TaiÃ±":7695,"ĠmaÃ±Ã¼m":7696,"ĠmollvÃ¼Ã±":7697,"ellahuen":7698,"Ġplantar":7699,"Ġsungumu":7700,"kellefuy":7701,"Nielu":7702,"ĠenseÃ±a":7703,"AllfÃ¼":7704,"AllfeÃ±":7705,"Ġrumen":7706,"rÃ¼ngÃ¼l":7707,"Ġrecupero":7708,"Ġmapuchengenmu":7709,"conocimiento":7710,"Ġ.......":7711,"ĠvivÃŃ":7712,"Ġazucar":7713,"Ġganar":7714,"dores":7715,"menos":7716,"Ġvolvio":7717,"Ġconsum":7718,"calde":7719,"ngÃ¼tam":7720,"Ġtripale":7721,"Ġngillay":7722,"Hartos":7723,"rugada":7724,"Ġarroz":7725,"ĠDomingo":7726,"perial":7727,"Ġkarukatu":7728,"Ġimportante":7729,"Ġcaminado":7730,"Ġpaisano":7731,"Ġequivoc":7732,"Ġdominio":7733,"Canelo":7734,"Kisu":7735,"MÃ¼Ã±":7736,"Sola":7737,"Van":7738,"WÃ¼l":7739,"din":7740,"flor":7741,"kengen":7742,"plan":7743,"peno":7744,"pangi":7745,"toma":7746,"utuy":7747,"ukÃ¼ley":7748,"wÃ¼ll":7749,"ĠO":7750,"ĠFey":7751,"ĠBuena":7752,"chÃ¼m":7753,"Ġmando":7754,"eyma":7755,"erro":7756,"Ġken":7757,"ngela":7758,"Ġesc":7759,"Ġesti":7760,"Ġesten":7761,"Ġnar":7762,"ĠcÃ¡n":7763,"Ġfr":7764,"ueteu":7765,"tukunu":7766,"turpu":7767,"algo":7768,"muna":7769,"meal":7770,"Ġvar":7771,"Ġvangeli":7772,"Ġlavan":7773,"Ġpieymu":7774,"feyka":7775,"Ġdire":7776,"ngeaymi":7777,"piyu":7778,"Ġcontin":7779,"Ġtiw":7780,"Ġpeda":7781,"ĠgÃ¼l":7782,"Ġngem":7783,"Ġpapito":7784,"umeki":7785,"Ġkimngi":7786,"Ġnierki":7787,"Ġmapuzugun":7788,"maÃ±um":7789,"Ġsigo":7790,"kenmu":7791,"kentinu":7792,"Ġira":7793,"entÃ³":7794,"Ġtuten":7795,"Ġtras":7796,"ĠkiÃ±eÃ±pÃ¼le":7797,"mongey":7798,"Ġdungul":7799,"ĠkÃ¼meafuy":7800,"Ġvega":7801,"femÃ¼n":7802,"panew":7803,"Ġnagi":7804,"ĠnaciÃ³":7805,"aukey":7806,"Ġkonlay":7807,"Ġcrecen":7808,"/-,":7809,"Ġjarro":7810,"amuki":7811,"Ġconocio":7812,"ĠmejorÃŃa":7813,"etuan":7814,"etulu":7815,"NgÃ¼f":7816,"perkelay":7817,"konÃ¼n":7818,"prepara":7819,"Ġmontun":7820,".....................":7821,"Ġfeypingi":7822,"mangey":7823,"Ġelueymu":7824,"Ġreciben":7825,"Ġtremole":7826,"hacia":7827,"Ġempi":7828,"Ġdewmal":7829,"Ġvivio":7830,"Ġpreguntado":7831,"ĠduamÃ¼n":7832,"Ġrupachi":7833,"ĠseguÃŃa":7834,"ĠrÃ¼ngi":7835,"ĠkÃ¼len":7836,"Ġpiedras":7837,"Ġpipingi":7838,"Ġrespetar":7839,"Ġenfermiso":7840,"Muchas":7841,"ĠvolcÃ¡n":7842,"ĠenseÃ±o":7843,"Ġcuidando":7844,"tukeyu":7845,"Ġllaf":7846,"Ġninguno":7847,"Ġtrabajaba":7848,"Ġtukulelngeki":7849,"Ġataja":7850,"enfermedades":7851,"Ġcarab":7852,"ĠpreguntarÃ©":7853,"kemum":7854,"Ġperdon":7855,"Ġlavativa":7856,"chunten":7857,"Ġepeke":7858,"Ġmanejo":7859,"Ġ..............":7860,"Ġtrufken":7861,"Ġenfermeda":7862,"fawpÃ¼le":7863,"Ġ.........":7864,"Ġtrekayaw":7865,"ĠkuwÃ¼mu":7866,"Ġlongkol":7867,"Ġdifunto":7868,"Ġsantiago":7869,"Ġajenjo":7870,"ĠengaÃ±":7871,"Ã±manu":7872,"Conoce":7873,"Ġmadrugada":7874,"Ġterr":7875,"Ġbosques":7876,"Ġmensajero":7877,"esucri":7878,"ĠÃĳanco":7879,"Ġcambiado":7880,"ĠAntigua":7881,"Del":7882,"Ell":7883,"Fi":7884,"Igual":7885,"Mew":7886,"Will":7887,"Ye":7888,"avece":7889,"cab":7890,"cemos":7891,"dÃ¼":7892,"dku":7893,"gÃ¼l":7894,"hampo":7895,"nÃ¼":7896,"nue":7897,"pele":7898,"utun":7899,"wan":7900,"esi":7901,"chelu":7902,"anfe":7903,"Ġkill":7904,"Ġkall":7905,"Ġaro":7906,"Ġavis":7907,"ngoy":7908,"osas":7909,"ÃŃbamos":7910,"ĠfayÃ¼m":7911,"Ġfrac":7912,"tute":7913,"tukefun":7914,"ĠpuwÃ¼n":7915,"Ġpuulay":7916,"tea":7917,"dolor":7918,"tierra":7919,"Ġell":7920,"Â¿*":7921,"Ġkachan":7922,"cidad":7923,"pimi":7924,"ĠmÃ¼ler":7925,"Ġmapudungu":7926,"oraca":7927,"kulli":7928,"Ġcuesta":7929,"Ġrepeta":7930,"luwi":7931,"keyengÃ¼n":7932,"lisi":7933,"ĠhabrÃ¡n":7934,"Ġ*.":7935,"Ġtrai":7936,"koÃ±":7937,"mongetuy":7938,"ngÃ¼ne":7939,"Ġsalmuera":7940,"Ġwig":7941,"control":7942,"entungi":7943,"Ġraza":7944,"Ġkoch":7945,"Ã©sto":7946,"tarde":7947,"kimngelay":7948,"kimnie":7949,"Ġcasos":7950,"Ġniefun":7951,"ĠcomÃŃ":7952,"kelavun":7953,"Ã¼llÃ¼n":7954,"tantes":7955,"Ġjue":7956,"Ġeymiam":7957,"Ġngewe":7958,"Ġmejorando":7959,"Ġpasada":7960,"Ġpensado":7961,"Ġsanan":7962,"ĠpÃ¼Ã±eÃ±el":7963,"Ġorillas":7964,"Ġquienes":7965,"kawe":7966,"Ġvende":7967,"Ġrespira":7968,"Ġvemi":7969,"Ġvemki":7970,"rastra":7971,"Ġcalmar":7972,"ĠCa":7973,"Ġfelefuy":7974,"Ġsabido":7975,"Ġakuki":7976,"Ġmentira":7977,"kerkevuy":7978,"ĠayÃ¼wÃ¼n":7979,"ĠLi":7980,"Ġpapeltun":7981,"ĠMaria":7982,"ĠallkÃ¼ken":7983,"Ġtrafentuki":7984,"Ġtrafentunmu":7985,"Ġnecesitan":7986,"Ġtocado":7987,"Ġusan":7988,"Ġjuntaban":7989,"ĠenseÃ±aron":7990,"Ġalivie":7991,"Ġcontagio":7992,"Nada":7993,"llegaron":7994,"Ġwechal":7995,"ĠÃ¼Ã±fi":7996,"Ġmostrar":7997,"Ngekelay":7998,"Ġaccidente":7999}